{
  "version": "1.0",
  "truncation": null,
  "padding": null,
  "added_tokens": [
    {
      "id": 0,
      "content": "<pad>",
      "single_word": false,
      "lstrip": false,
      "rstrip": false,
      "normalized": false,
      "special": true
    },
    {
      "id": 1,
      "content": "<unk>",
      "single_word": false,
      "lstrip": false,
      "rstrip": false,
      "normalized": false,
      "special": true
    },
    {
      "id": 2,
      "content": "<bos>",
      "single_word": false,
      "lstrip": false,
      "rstrip": false,
      "normalized": false,
      "special": true
    },
    {
      "id": 3,
      "content": "<eos>",
      "single_word": false,
      "lstrip": false,
      "rstrip": false,
      "normalized": false,
      "special": true
    },
    {
      "id": 4,
      "content": "<s>",
      "single_word": false,
      "lstrip": false,
      "rstrip": false,
      "normalized": false,
      "special": true
    },
    {
      "id": 5,
      "content": "</s>",
      "single_word": false,
      "lstrip": false,
      "rstrip": false,
      "normalized": false,
      "special": true
    },
    {
      "id": 32768,
      "content": "<|im_start|>",
      "single_word": false,
      "lstrip": false,
      "rstrip": false,
      "normalized": false,
      "special": true
    },
    {
      "id": 32769,
      "content": "<|im_end|>",
      "single_word": false,
      "lstrip": false,
      "rstrip": false,
      "normalized": false,
      "special": true
    }
  ],
  "normalizer": null,
  "pre_tokenizer": {
    "type": "ByteLevel",
    "add_prefix_space": true,
    "trim_offsets": true,
    "use_regex": true
  },
  "post_processor": {
    "type": "TemplateProcessing",
    "single": [
      {
        "SpecialToken": {
          "id": "<bos>",
          "type_id": 0
        }
      },
      {
        "Sequence": {
          "id": "A",
          "type_id": 0
        }
      },
      {
        "SpecialToken": {
          "id": "<eos>",
          "type_id": 0
        }
      }
    ],
    "pair": [
      {
        "Sequence": {
          "id": "A",
          "type_id": 0
        }
      },
      {
        "Sequence": {
          "id": "B",
          "type_id": 1
        }
      }
    ],
    "special_tokens": {
      "<bos>": {
        "id": "<bos>",
        "ids": [
          2
        ],
        "tokens": [
          "<bos>"
        ]
      },
      "<eos>": {
        "id": "<eos>",
        "ids": [
          3
        ],
        "tokens": [
          "<eos>"
        ]
      }
    }
  },
  "decoder": {
    "type": "ByteLevel",
    "add_prefix_space": true,
    "trim_offsets": true,
    "use_regex": true
  },
  "model": {
    "type": "BPE",
    "dropout": null,
    "unk_token": "<unk>",
    "continuing_subword_prefix": null,
    "end_of_word_suffix": null,
    "fuse_unk": false,
    "byte_fallback": false,
    "ignore_merges": false,
    "vocab": {
      "<pad>": 0,
      "<unk>": 1,
      "<bos>": 2,
      "<eos>": 3,
      "<s>": 4,
      "</s>": 5,
      "!": 6,
      "\"": 7,
      "#": 8,
      "$": 9,
      "%": 10,
      "&": 11,
      "'": 12,
      "(": 13,
      ")": 14,
      "*": 15,
      "+": 16,
      ",": 17,
      "-": 18,
      ".": 19,
      "/": 20,
      "0": 21,
      "1": 22,
      "2": 23,
      "3": 24,
      "4": 25,
      "5": 26,
      "6": 27,
      "7": 28,
      "8": 29,
      "9": 30,
      ":": 31,
      ";": 32,
      "<": 33,
      "=": 34,
      ">": 35,
      "?": 36,
      "@": 37,
      "A": 38,
      "B": 39,
      "C": 40,
      "D": 41,
      "E": 42,
      "F": 43,
      "G": 44,
      "H": 45,
      "I": 46,
      "J": 47,
      "K": 48,
      "L": 49,
      "M": 50,
      "N": 51,
      "O": 52,
      "P": 53,
      "Q": 54,
      "R": 55,
      "S": 56,
      "T": 57,
      "U": 58,
      "V": 59,
      "W": 60,
      "X": 61,
      "Y": 62,
      "Z": 63,
      "[": 64,
      "\\": 65,
      "]": 66,
      "^": 67,
      "_": 68,
      "`": 69,
      "a": 70,
      "b": 71,
      "c": 72,
      "d": 73,
      "e": 74,
      "f": 75,
      "g": 76,
      "h": 77,
      "i": 78,
      "j": 79,
      "k": 80,
      "l": 81,
      "m": 82,
      "n": 83,
      "o": 84,
      "p": 85,
      "q": 86,
      "r": 87,
      "s": 88,
      "t": 89,
      "u": 90,
      "v": 91,
      "w": 92,
      "x": 93,
      "y": 94,
      "z": 95,
      "{": 96,
      "|": 97,
      "}": 98,
      "~": 99,
      "¡": 100,
      "¢": 101,
      "£": 102,
      "¤": 103,
      "¥": 104,
      "¦": 105,
      "§": 106,
      "¨": 107,
      "©": 108,
      "ª": 109,
      "«": 110,
      "¬": 111,
      "®": 112,
      "¯": 113,
      "°": 114,
      "±": 115,
      "²": 116,
      "³": 117,
      "´": 118,
      "µ": 119,
      "¶": 120,
      "·": 121,
      "¸": 122,
      "¹": 123,
      "º": 124,
      "»": 125,
      "¼": 126,
      "½": 127,
      "¾": 128,
      "¿": 129,
      "À": 130,
      "Á": 131,
      "Â": 132,
      "Ã": 133,
      "Ä": 134,
      "Å": 135,
      "Æ": 136,
      "Ç": 137,
      "È": 138,
      "É": 139,
      "Ê": 140,
      "Ë": 141,
      "Ì": 142,
      "Í": 143,
      "Î": 144,
      "Ï": 145,
      "Ð": 146,
      "Ñ": 147,
      "Ò": 148,
      "Ó": 149,
      "Ô": 150,
      "Õ": 151,
      "Ö": 152,
      "×": 153,
      "Ø": 154,
      "Ù": 155,
      "Ú": 156,
      "Û": 157,
      "Ü": 158,
      "Ý": 159,
      "Þ": 160,
      "ß": 161,
      "à": 162,
      "á": 163,
      "â": 164,
      "ã": 165,
      "ä": 166,
      "å": 167,
      "æ": 168,
      "ç": 169,
      "è": 170,
      "é": 171,
      "ê": 172,
      "ë": 173,
      "ì": 174,
      "í": 175,
      "î": 176,
      "ï": 177,
      "ð": 178,
      "ñ": 179,
      "ò": 180,
      "ó": 181,
      "ô": 182,
      "õ": 183,
      "ö": 184,
      "÷": 185,
      "ø": 186,
      "ù": 187,
      "ú": 188,
      "û": 189,
      "ü": 190,
      "ý": 191,
      "þ": 192,
      "ÿ": 193,
      "Ā": 194,
      "ā": 195,
      "Ă": 196,
      "ă": 197,
      "Ą": 198,
      "ą": 199,
      "Ć": 200,
      "ć": 201,
      "Ĉ": 202,
      "ĉ": 203,
      "Ċ": 204,
      "ċ": 205,
      "Č": 206,
      "č": 207,
      "Ď": 208,
      "ď": 209,
      "Đ": 210,
      "đ": 211,
      "Ē": 212,
      "ē": 213,
      "Ĕ": 214,
      "ĕ": 215,
      "Ė": 216,
      "ė": 217,
      "Ę": 218,
      "ę": 219,
      "Ě": 220,
      "ě": 221,
      "Ĝ": 222,
      "ĝ": 223,
      "Ğ": 224,
      "ğ": 225,
      "Ġ": 226,
      "ġ": 227,
      "Ģ": 228,
      "ģ": 229,
      "Ĥ": 230,
      "ĥ": 231,
      "Ħ": 232,
      "ħ": 233,
      "Ĩ": 234,
      "ĩ": 235,
      "Ī": 236,
      "ī": 237,
      "Ĭ": 238,
      "ĭ": 239,
      "Į": 240,
      "į": 241,
      "İ": 242,
      "ı": 243,
      "Ĳ": 244,
      "ĳ": 245,
      "Ĵ": 246,
      "ĵ": 247,
      "Ķ": 248,
      "ķ": 249,
      "ĸ": 250,
      "Ĺ": 251,
      "ĺ": 252,
      "Ļ": 253,
      "ļ": 254,
      "Ľ": 255,
      "ľ": 256,
      "Ŀ": 257,
      "ŀ": 258,
      "Ł": 259,
      "ł": 260,
      "Ń": 261,
      "ĠĠ": 262,
      "ĠĠĠĠ": 263,
      "=\"": 264,
      "re": 265,
      "in": 266,
      "Ġc": 267,
      "</": 268,
      "Ġt": 269,
      "er": 270,
      "as": 271,
      "on": 272,
      "an": 273,
      "\">": 274,
      "en": 275,
      "Ġ<": 276,
      "ass": 277,
      "he": 278,
      "lass": 279,
      "at": 280,
      "Ġclass": 281,
      "or": 282,
      "le": 283,
      "de": 284,
      "Ġs": 285,
      "me": 286,
      "ar": 287,
      "ĠĠĠ": 288,
      "it": 289,
      "al": 290,
      "sp": 291,
      "Ġthe": 292,
      "ion": 293,
      "is": 294,
      "ĠĠĠĠĠĠĠĠ": 295,
      "di": 296,
      "ct": 297,
      "Ġf": 298,
      "se": 299,
      "tr": 300,
      "span": 301,
      "Ġa": 302,
      "Ġh": 303,
      "li": 304,
      "Ġp": 305,
      "Ġn": 306,
      "Ġo": 307,
      "Ġin": 308,
      "Ġb": 309,
      "div": 310,
      "ed": 311,
      "es": 312,
      "ref": 313,
      "ht": 314,
      "ro": 315,
      "><": 316,
      "ing": 317,
      "et": 318,
      "Ġ.": 319,
      "Ġ</": 320,
      "ent": 321,
      "Ġi": 322,
      "co": 323,
      "Ġw": 324,
      "></": 325,
      "ut": 326,
      "ame": 327,
      "st": 328,
      "el": 329,
      "ml": 330,
      "Ġ\"": 331,
      "Ġhref": 332,
      "Ġto": 333,
      "ĠĊ": 334,
      "ab": 335,
      "and": 336,
      "un": 337,
      "td": 338,
      "ce": 339,
      "ĠĠĠĠĠĠĠ": 340,
      "pt": 341,
      "html": 342,
      "th": 343,
      "\"><": 344,
      "ĠT": 345,
      "ad": 346,
      "ex": 347,
      "Ġre": 348,
      "ur": 349,
      "mp": 350,
      "lo": 351,
      "Ġ(": 352,
      "Ġis": 353,
      "il": 354,
      "Ġm": 355,
      "ter": 356,
      "ch": 357,
      "ri": 358,
      "pe": 359,
      "Ġd": 360,
      "Ġ0": 361,
      "em": 362,
      "Ġof": 363,
      "00": 364,
      "ck": 365,
      "Ġv": 366,
      "()": 367,
      "ul": 368,
      "ction": 369,
      "od": 370,
      "lin": 371,
      "ke": 372,
      "Ġth": 373,
      "Ġ-": 374,
      "Ġand": 375,
      "ag": 376,
      "ig": 377,
      "Ġ*": 378,
      "ot": 379,
      "able": 380,
      "Ġde": 381,
      "SS": 382,
      "code": 383,
      "ation": 384,
      "Ġfor": 385,
      "ĠI": 386,
      "id": 387,
      "Ġcon": 388,
      "Ġu": 389,
      "Ġbe": 390,
      "get": 391,
      "Ġco": 392,
      "Ġid": 393,
      "ic": 394,
      "ile": 395,
      "SSL": 396,
      "ype": 397,
      "ĠS": 398,
      "sc": 399,
      "ĠE": 400,
      "Ġ'": 401,
      "ate": 402,
      "to": 403,
      "ĠO": 404,
      "am": 405,
      "lib": 406,
      "meth": 407,
      "um": 408,
      "all": 409,
      "ĠA": 410,
      "if": 411,
      "do": 412,
      "ĠĠĠĠĠĠĠĠĠĠĠ": 413,
      "Ġl": 414,
      "method": 415,
      "ER": 416,
      "ĠĠĊ": 417,
      "IN": 418,
      "ol": 419,
      "ext": 420,
      "Ġname": 421,
      "ĠĠĠĠĠ": 422,
      "16": 423,
      "\"></": 424,
      "ĠC": 425,
      "pp": 426,
      "ption": 427,
      "ss": 428,
      "--": 429,
      "ith": 430,
      "key": 431,
      "ue": 432,
      "Ġ=": 433,
      "ers": 434,
      "con": 435,
      "ist": 436,
      "av": 437,
      "name": 438,
      "ĠThe": 439,
      "Ġ1": 440,
      "qu": 441,
      "mem": 442,
      "ren": 443,
      "ay": 444,
      "par": 445,
      "Ġ4": 446,
      "Ġon": 447,
      "ma": 448,
      "Ġor": 449,
      "urn": 450,
      "ree": 451,
      "scri": 452,
      "dd": 453,
      "ĠP": 454,
      "ĠĠĠĠĠĠĠĠĠ": 455,
      "ĠN": 456,
      "ta": 457,
      "pre": 458,
      "Ġby": 459,
      "vi": 460,
      "set": 461,
      "ĠD": 462,
      "Ġan": 463,
      "str": 464,
      "ect": 465,
      "ub": 466,
      "ff": 467,
      "Ġ\\": 468,
      "unction": 469,
      "Ġg": 470,
      ");": 471,
      "Ġif": 472,
      "Ġuse": 473,
      "Ġ2": 474,
      "ult": 475,
      "Ġpro": 476,
      "line": 477,
      "CT": 478,
      "RE": 479,
      "ac": 480,
      "age": 481,
      "ort": 482,
      "ew": 483,
      "VP": 484,
      "',": 485,
      "ert": 486,
      "Ġnot": 487,
      "turn": 488,
      "Ġwith": 489,
      "up": 490,
      "ment": 491,
      "Ġch": 492,
      "Ġ#": 493,
      "ly": 494,
      "&#": 495,
      "iz": 496,
      "fa": 497,
      "Ġe": 498,
      "cl": 499,
      "Ġit": 500,
      "iv": 501,
      "Ġex": 502,
      "Ġval": 503,
      "::": 504,
      "09": 505,
      "Ġst": 506,
      "*(": 507,
      "ata": 508,
      "bo": 509,
      "Ġthat": 510,
      "ign": 511,
      "int": 512,
      "us": 513,
      "ĠF": 514,
      "ME": 515,
      "itle": 516,
      "amp": 517,
      "Ġwh": 518,
      "op": 519,
      "__": 520,
      "AT": 521,
      "ra": 522,
      "Ġreturn": 523,
      "Ġal": 524,
      "ON": 525,
      "ver": 526,
      "tent": 527,
      "put": 528,
      "ib": 529,
      "ĠOSSL": 530,
      "Ġint": 531,
      "ST": 532,
      "mm": 533,
      "\\*(": 534,
      "ces": 535,
      "orm": 536,
      "fin": 537,
      "ĠEVP": 538,
      "ill": 539,
      "ure": 540,
      "Ġas": 541,
      "160": 542,
      "tem": 543,
      "Ġare": 544,
      "doc": 545,
      "uct": 546,
      "Ġfile": 547,
      "PE": 548,
      "ari": 549,
      "KE": 550,
      "arg": 551,
      "pro": 552,
      "eren": 553,
      "),": 554,
      "sy": 555,
      "ated": 556,
      "est": 557,
      "Ġ--": 558,
      "ack": 559,
      "Ġdo": 560,
      "Ġthis": 561,
      "=\"#": 562,
      "fo": 563,
      "ĠL": 564,
      "ĠR": 565,
      "Ġse": 566,
      "text": 567,
      "Ġen": 568,
      "/>": 569,
      "Ġ[": 570,
      "Ġstr": 571,
      "script": 572,
      "Ġun": 573,
      "//": 574,
      "\",": 575,
      "ener": 576,
      "Ġtype": 577,
      "type": 578,
      "..": 579,
      "IP": 580,
      "try": 581,
      "rom": 582,
      "12": 583,
      "Ġset": 584,
      "02": 585,
      "ec": 586,
      "Ġdi": 587,
      "AR": 588,
      "Ġsu": 589,
      "ang": 590,
      "table": 591,
      "(),": 592,
      "param": 593,
      "ject": 594,
      "Ġno": 595,
      "dex": 596,
      "ror": 597,
      "tern": 598,
      "lock": 599,
      "link": 600,
      "Ġfunction": 601,
      "ader": 602,
      "Ġcan": 603,
      "ĠB": 604,
      "class": 605,
      "Ġr": 606,
      "AL": 607,
      "ĠĠĠĠĊ": 608,
      "ip": 609,
      "ize": 610,
      "01": 611,
      "our": 612,
      "ĠX": 613,
      "ord": 614,
      "arch": 615,
      "CTX": 616,
      "EN": 617,
      "lic": 618,
      "pen": 619,
      "ĠM": 620,
      ";</": 621,
      "form": 622,
      "ser": 623,
      "ef": 624,
      "dt": 625,
      "ok": 626,
      "ument": 627,
      "ĠG": 628,
      "Ġwill": 629,
      "ES": 630,
      "mmand": 631,
      "tp": 632,
      "erence": 633,
      "im": 634,
      "ded": 635,
      "his": 636,
      "Ġ{": 637,
      "TI": 638,
      "Ġchar": 639,
      "pec": 640,
      "ans": 641,
      "yle": 642,
      "OR": 643,
      "Ġvalue": 644,
      "509": 645,
      "Ġfrom": 646,
      "Ġmo": 647,
      ".</": 648,
      "che": 649,
      "32": 650,
      "section": 651,
      "In": 652,
      "mo": 653,
      "low": 654,
      "ght": 655,
      "UT": 656,
      "new": 657,
      "no": 658,
      "cess": 659,
      "abel": 660,
      "entry": 661,
      "CM": 662,
      "Ġpar": 663,
      "Ġsh": 664,
      "ace": 665,
      "te": 666,
      "rc": 667,
      "ator": 668,
      "Ġpo": 669,
      "fault": 670,
      "io": 671,
      "ĠH": 672,
      "red": 673,
      "free": 674,
      "ath": 675,
      "ersion": 676,
      "SI": 677,
      "loc": 678,
      "one": 679,
      "ase": 680,
      "Ġ3": 681,
      "ĠThis": 682,
      "ary": 683,
      ">,": 684,
      "index": 685,
      ").": 686,
      "Ġused": 687,
      "ime": 688,
      "nc": 689,
      "ide": 690,
      "eno": 691,
      "\"\"": 692,
      "ĠV": 693,
      "Ġat": 694,
      "ĠĠĠĠĠĠĠĠĠĠĠĠĠĠĠ": 695,
      "ap": 696,
      "\":": 697,
      "error": 698,
      "ĠIf": 699,
      "lineno": 700,
      "mple": 701,
      "eng": 702,
      "elf": 703,
      "pecif": 704,
      "KEY": 705,
      "ir": 706,
      "act": 707,
      "ition": 708,
      "://": 709,
      "64": 710,
      "Ġoption": 711,
      "Ġself": 712,
      "reference": 713,
      "ĠU": 714,
      "ariable": 715,
      "\"/>": 716,
      "res": 717,
      "18": 718,
      "IT": 719,
      "Ġ_": 720,
      "14": 721,
      "ternal": 722,
      "struct": 723,
      "Ġ/": 724,
      "ther": 725,
      "roup": 726,
      "po": 727,
      "ds": 728,
      "Ġy": 729,
      "UL": 730,
      "ĠW": 731,
      "19": 732,
      "title": 733,
      "ĠItem": 734,
      "per": 735,
      "bject": 736,
      "NG": 737,
      "item": 738,
      "CR": 739,
      "ource": 740,
      "Ġ}": 741,
      "13": 742,
      "ix": 743,
      "04": 744,
      "Ġ&": 745,
      "ameter": 746,
      "ding": 747,
      "----": 748,
      "ils": 749,
      "':": 750,
      "oid": 751,
      "ies": 752,
      "ust": 753,
      "tt": 754,
      "ee": 755,
      "af": 756,
      "Con": 757,
      "Ġconst": 758,
      "ich": 759,
      "Ġcontent": 760,
      "val": 761,
      "YPE": 762,
      "cb": 763,
      "25": 764,
      "right": 765,
      "ive": 766,
      "ber": 767,
      "col": 768,
      "br": 769,
      "03": 770,
      "ug": 771,
      "Ġcall": 772,
      "ĠĠĠĠĠĠĠĠĠĠĠĠĊ": 773,
      "ory": 774,
      "Ġso": 775,
      "der": 776,
      "mat": 777,
      "ite": 778,
      "http": 779,
      "Ġspecif": 780,
      "pert": 781,
      "lay": 782,
      "Ġdata": 783,
      "CW": 784,
      "stem": 785,
      "AC": 786,
      "OP": 787,
      "LE": 788,
      "ight": 789,
      "OSSL": 790,
      "out": 791,
      "67": 792,
      "nav": 793,
      "ve": 794,
      "iter": 795,
      "ream": 796,
      "ID": 797,
      "read": 798,
      "com": 799,
      "meta": 800,
      "SE": 801,
      "Ġkey": 802,
      "use": 803,
      "gt": 804,
      "ow": 805,
      "05": 806,
      "08": 807,
      "ie": 808,
      "TR": 809,
      "block": 810,
      "ity": 811,
      "const": 812,
      "search": 813,
      "rect": 814,
      "==": 815,
      "nb": 816,
      "Ġlib": 817,
      "Ġme": 818,
      "ial": 819,
      "file": 820,
      "AM": 821,
      "ail": 822,
      "15": 823,
      "Ġsy": 824,
      "tain": 825,
      "eg": 826,
      "17": 827,
      "Ġus": 828,
      "DE": 829,
      "sign": 830,
      "99": 831,
      "Ġtitle": 832,
      "ĠĠĠĠĠĠĠĠĊ": 833,
      "uld": 834,
      "org": 835,
      "ĠĠĠĠĠĠĠĠĠĠĠĠĠĠĠĠ": 836,
      "):": 837,
      "ou": 838,
      "ress": 839,
      "cc": 840,
      "word": 841,
      "make": 842,
      "Ġinternal": 843,
      "Ġcomp": 844,
      "end": 845,
      "scription": 846,
      "06": 847,
      "check": 848,
      "St": 849,
      "so": 850,
      "eb": 851,
      "samp": 852,
      "Ġwhich": 853,
      "gen": 854,
      "lf": 855,
      "ft": 856,
      "ww": 857,
      "Ġout": 858,
      "Ġerror": 859,
      "lag": 860,
      "ĠIn": 861,
      "Ġma": 862,
      "toct": 863,
      "toctree": 864,
      "lient": 865,
      "IB": 866,
      "22": 867,
      "list": 868,
      "07": 869,
      "classlib": 870,
      "88": 871,
      "idth": 872,
      "ally": 873,
      "inter": 874,
      "vice": 875,
      "ied": 876,
      "header": 877,
      "Ġhas": 878,
      "ry": 879,
      "ual": 880,
      "CS": 881,
      "self": 882,
      "rent": 883,
      "row": 884,
      "nbsp": 885,
      "trib": 886,
      "art": 887,
      "sym": 888,
      "ard": 889,
      "Ġwhen": 890,
      "CIP": 891,
      "ĠTcl": 892,
      "ING": 893,
      "ant": 894,
      "clu": 895,
      "var": 896,
      "../": 897,
      "SA": 898,
      "HER": 899,
      "https": 900,
      "add": 901,
      "def": 902,
      "oc": 903,
      "Ġdefault": 904,
      "ould": 905,
      "perty": 906,
      "Ġmay": 907,
      "ULL": 908,
      "34": 909,
      "cri": 910,
      "Ġsrc": 911,
      "Ġnum": 912,
      "AME": 913,
      "ule": 914,
      "ca": 915,
      "Ġle": 916,
      "WP": 917,
      "IC": 918,
      "function": 919,
      "ont": 920,
      "Ġarg": 921,
      "],": 922,
      "unt": 923,
      "tribut": 924,
      "vent": 925,
      "lect": 926,
      "late": 927,
      "Ġstring": 928,
      "Ġcommand": 929,
      "min": 930,
      "dow": 931,
      ";<": 932,
      "trans": 933,
      "fig": 934,
      "ample": 935,
      "iteral": 936,
      "54": 937,
      "Ġx": 938,
      ")</": 939,
      "Par": 940,
      "Ġall": 941,
      "\\|": 942,
      "pport": 943,
      "ET": 944,
      "11": 945,
      "utils": 946,
      "YN": 947,
      "CIPHER": 948,
      "Ġcol": 949,
      "ave": 950,
      "File": 951,
      "head": 952,
      "37": 953,
      "main": 954,
      "PAR": 955,
      "lt": 956,
      "log": 957,
      "are": 958,
      "unc": 959,
      "=\"../": 960,
      "24": 961,
      "Ġk": 962,
      "itt": 963,
      "og": 964,
      "sh": 965,
      "84": 966,
      "iel": 967,
      "RO": 968,
      "js": 969,
      "Aq": 970,
      "Item": 971,
      "AN": 972,
      "List": 973,
      "und": 974,
      "39": 975,
      "Ġlist": 976,
      "Ġbu": 977,
      "description": 978,
      "db": 979,
      "label": 980,
      "Ġ$": 981,
      "den": 982,
      "py": 983,
      "Ġany": 984,
      "cre": 985,
      "55": 986,
      "Ġcur": 987,
      "aa": 988,
      "66": 989,
      "IO": 990,
      "signed": 991,
      "87": 992,
      "arget": 993,
      "ong": 994,
      "27": 995,
      "ild": 996,
      "data": 997,
      "!--": 998,
      "ine": 999,
      "UR": 1000,
      "box": 1001,
      "ED": 1002,
      "IG": 1003,
      "ls": 1004,
      "Ġadd": 1005,
      "{\\": 1006,
      "LO": 1007,
      "memItem": 1008,
      "Ġonly": 1009,
      "cd": 1010,
      "Ġsize": 1011,
      "\\\\": 1012,
      "Ġdoc": 1013,
      "her": 1014,
      "94": 1015,
      "su": 1016,
      "Co": 1017,
      "PKEY": 1018,
      "ens": 1019,
      "AP": 1020,
      "back": 1021,
      "ull": 1022,
      "33": 1023,
      "Ġliteral": 1024,
      "keysym": 1025,
      "ga": 1026,
      "Ġversion": 1027,
      "eader": 1028,
      "57": 1029,
      "Ġusing": 1030,
      "ph": 1031,
      "uto": 1032,
      "Ġshould": 1033,
      "86": 1034,
      "PARAM": 1035,
      "()</": 1036,
      "ote": 1037,
      "cript": 1038,
      "clude": 1039,
      "Ġ|": 1040,
      "vir": 1041,
      "Ġres": 1042,
      "top": 1043,
      "ccess": 1044,
      "Ġstyle": 1045,
      "nel": 1046,
      "CMP": 1047,
      "Ġ-->": 1048,
      "ength": 1049,
      "ody": 1050,
      "splay": 1051,
      "Ġnew": 1052,
      "FO": 1053,
      "Ġ`": 1054,
      "lement": 1055,
      "content": 1056,
      "pl": 1057,
      "10": 1058,
      "ameters": 1059,
      "36": 1060,
      "Ġro": 1061,
      "ations": 1062,
      "ific": 1063,
      "]</": 1064,
      "Ġ\"\"\"": 1065,
      "LS": 1066,
      "fb": 1067,
      "Ġyou": 1068,
      "Ġobject": 1069,
      "Ġsupport": 1070,
      "func": 1071,
      "ll": 1072,
      "Ġdef": 1073,
      "ne": 1074,
      "ctx": 1075,
      "97": 1076,
      "Ġstruct": 1077,
      "56": 1078,
      "Ġ\\%": 1079,
      "Ġ..": 1080,
      "ak": 1081,
      "Ġother": 1082,
      "option": 1083,
      "Ġapp": 1084,
      "ollow": 1085,
      "ĠNULL": 1086,
      "Ġargument": 1087,
      "led": 1088,
      "space": 1089,
      "lags": 1090,
      "port": 1091,
      "\\|(": 1092,
      "ish": 1093,
      "Ġ>": 1094,
      "INT": 1095,
      "variable": 1096,
      "ast": 1097,
      "rint": 1098,
      "docblock": 1099,
      "ense": 1100,
      "ange": 1101,
      "26": 1102,
      "Ġtr": 1103,
      "ATTR": 1104,
      "Type": 1105,
      "Ch": 1106,
      "mlabel": 1107,
      "memitem": 1108,
      "Ġrequ": 1109,
      "ae": 1110,
      "Ġ\\{\\": 1111,
      "body": 1112,
      "enerator": 1113,
      "Ġper": 1114,
      "The": 1115,
      "28": 1116,
      "Ġone": 1117,
      "Ġinst": 1118,
      "bb": 1119,
      "._": 1120,
      "29": 1121,
      "Pro": 1122,
      "Ġrel": 1123,
      "comp": 1124,
      "AD": 1125,
      "keyword": 1126,
      "vel": 1127,
      "odule": 1128,
      "dl": 1129,
      "df": 1130,
      "man": 1131,
      "Ġfunctions": 1132,
      "Ġav": 1133,
      "59": 1134,
      "ise": 1135,
      "paramname": 1136,
      "ues": 1137,
      "cept": 1138,
      "gr": 1139,
      "Ġmat": 1140,
      "riv": 1141,
      "Ġnumber": 1142,
      "CO": 1143,
      "bu": 1144,
      "NO": 1145,
      "Ġoutput": 1146,
      "rev": 1147,
      "ĠĠĠĠĠĠĊ": 1148,
      "Ġreturns": 1149,
      "Ġfollow": 1150,
      "rite": 1151,
      "INFO": 1152,
      "('": 1153,
      "ML": 1154,
      "0000": 1155,
      "pper": 1156,
      "TIME": 1157,
      "Ġsub": 1158,
      "translate": 1159,
      "Ġtime": 1160,
      "LA": 1161,
      "size": 1162,
      "UB": 1163,
      "Ġsp": 1164,
      "indow": 1165,
      "ey": 1166,
      "SD": 1167,
      "ork": 1168,
      "AKE": 1169,
      "Ġpl": 1170,
      "Ġhave": 1171,
      "Ġnotranslate": 1172,
      "width": 1173,
      "ield": 1174,
      "Ġ/>": 1175,
      "VNG": 1176,
      "open": 1177,
      "style": 1178,
      "url": 1179,
      "path": 1180,
      "38": 1181,
      "ind": 1182,
      "rary": 1183,
      "Ġwas": 1184,
      "Ġcode": 1185,
      "INE": 1186,
      "44": 1187,
      "Ġdis": 1188,
      "Ġcontain": 1189,
      "yp": 1190,
      "Ġsystem": 1191,
      "ĠOpen": 1192,
      "\\}": 1193,
      "Ġpre": 1194,
      "Key": 1195,
      "color": 1196,
      "Ġpass": 1197,
      "PO": 1198,
      "Ġdirect": 1199,
      "be": 1200,
      "Ġspecified": 1201,
      "ĠSSL": 1202,
      "idden": 1203,
      "TION": 1204,
      "Ġcharact": 1205,
      "ĠHeader": 1206,
      "Ġvoid": 1207,
      "app": 1208,
      "Ġinit": 1209,
      "Ġimp": 1210,
      "Ġz": 1211,
      "SYN": 1212,
      "side": 1213,
      "ailable": 1214,
      "tes": 1215,
      "xy": 1216,
      "ates": 1217,
      "input": 1218,
      "load": 1219,
      "command": 1220,
      "ink": 1221,
      "ach": 1222,
      "enge": 1223,
      "Ġbo": 1224,
      "Ġmust": 1225,
      "Ġinter": 1226,
      "ĠNone": 1227,
      "not": 1228,
      "35": 1229,
      "wn": 1230,
      "Bo": 1231,
      "TA": 1232,
      "fd": 1233,
      "RVNG": 1234,
      "wra": 1235,
      "Ġbut": 1236,
      "css": 1237,
      "ance": 1238,
      "Ġformat": 1239,
      "vis": 1240,
      "mage": 1241,
      "revenge": 1242,
      "MP": 1243,
      "ĠDe": 1244,
      ",</": 1245,
      "checkbox": 1246,
      "alse": 1247,
      "book": 1248,
      "\",\"": 1249,
      "EX": 1250,
      "cmake": 1251,
      "its": 1252,
      "string": 1253,
      "IBUT": 1254,
      "ĠĠĠĠĠĠ": 1255,
      "eft": 1256,
      "mplement": 1257,
      "Ġman": 1258,
      "De": 1259,
      "finish": 1260,
      "asy": 1261,
      "--------": 1262,
      "info": 1263,
      "MD": 1264,
      "))": 1265,
      "Left": 1266,
      "sync": 1267,
      "ERT": 1268,
      "Parser": 1269,
      "89": 1270,
      ">&": 1271,
      "Ġinput": 1272,
      "ier": 1273,
      "bar": 1274,
      "Ġli": 1275,
      "Ġloc": 1276,
      "gle": 1277,
      "Ġthen": 1278,
      "om": 1279,
      "AS": 1280,
      "Ġsource": 1281,
      "Right": 1282,
      "ATTRIBUT": 1283,
      "value": 1284,
      "77": 1285,
      "anch": 1286,
      "Ġfil": 1287,
      "fe": 1288,
      "Ġser": 1289,
      "rypt": 1290,
      "EVP": 1291,
      "\">[": 1292,
      "void": 1293,
      "Ġoper": 1294,
      "CMAKE": 1295,
      "group": 1296,
      "(\"": 1297,
      "sv": 1298,
      "defin": 1299,
      "='": 1300,
      "KCS": 1301,
      "Ġne": 1302,
      "Ġ+": 1303,
      "Ġlink": 1304,
      "irst": 1305,
      "Ġvariable": 1306,
      "Ġgiv": 1307,
      "init": 1308,
      "Ġwe": 1309,
      "\">&#": 1310,
      "Client": 1311,
      "ebook": 1312,
      "Ġ*/": 1313,
      "stat": 1314,
      "bd": 1315,
      "desc": 1316,
      "Ġmode": 1317,
      "Ġ5": 1318,
      "nf": 1319,
      "Ġread": 1320,
      "Ġget": 1321,
      "Ġ,": 1322,
      "map": 1323,
      "Ġup": 1324,
      "dded": 1325,
      "ION": 1326,
      "ince": 1327,
      "ced": 1328,
      "Ġdefin": 1329,
      "ous": 1330,
      "jav": 1331,
      "trol": 1332,
      "quot": 1333,
      "HT": 1334,
      "85": 1335,
      "by": 1336,
      "ions": 1337,
      "ting": 1338,
      "FI": 1339,
      "sed": 1340,
      "20": 1341,
      "Ġcurrent": 1342,
      "ost": 1343,
      "Ġtext": 1344,
      "ray": 1345,
      "UN": 1346,
      "Ġcolor": 1347,
      "CH": 1348,
      "wit": 1349,
      "Ġcre": 1350,
      "memname": 1351,
      "wrapper": 1352,
      "ead": 1353,
      "DO": 1354,
      "annel": 1355,
      "Ġht": 1356,
      "Ġline": 1357,
      "96": 1358,
      "Ġass": 1359,
      "Ġhe": 1360,
      "ascript": 1361,
      "Ġstructure": 1362,
      "ell": 1363,
      "Ġdoes": 1364,
      "ake": 1365,
      "Ġalso": 1366,
      "23": 1367,
      "javascript": 1368,
      "async": 1369,
      "\\\\$": 1370,
      "gram": 1371,
      "formation": 1372,
      "www": 1373,
      "font": 1374,
      "cur": 1375,
      "ĠFor": 1376,
      "hen": 1377,
      "md": 1378,
      "ĠIt": 1379,
      "Ġgiven": 1380,
      "uth": 1381,
      "alled": 1382,
      "Ġfiles": 1383,
      "face": 1384,
      "Ġvalues": 1385,
      "Ġpath": 1386,
      "Ġconfig": 1387,
      "Ġunsigned": 1388,
      "anchor": 1389,
      "47": 1390,
      "DI": 1391,
      "ale": 1392,
      "char": 1393,
      "fi": 1394,
      "Ġ__": 1395,
      "ses": 1396,
      "bc": 1397,
      "ash": 1398,
      "docutils": 1399,
      "Ġ/*": 1400,
      "Ġresult": 1401,
      "ible": 1402,
      "off": 1403,
      "ms": 1404,
      "Ġfollowing": 1405,
      "ssl": 1406,
      "Col": 1407,
      "Ġavailable": 1408,
      "NAME": 1409,
      "MS": 1410,
      "Ġauto": 1411,
      "heck": 1412,
      "VSD": 1413,
      "Ġover": 1414,
      "hand": 1415,
      "bj": 1416,
      "TYPE": 1417,
      "Ġar": 1418,
      "rivate": 1419,
      "version": 1420,
      "ning": 1421,
      "ĠOpenSSL": 1422,
      "ature": 1423,
      "Ġgener": 1424,
      "Ġimplement": 1425,
      "Ġproperty": 1426,
      "prop": 1427,
      "source": 1428,
      "da": 1429,
      "spon": 1430,
      "time": 1431,
      "rror": 1432,
      "Lib": 1433,
      "igh": 1434,
      "CRIP": 1435,
      "include": 1436,
      "dec": 1437,
      "Text": 1438,
      "Info": 1439,
      "onent": 1440,
      "ating": 1441,
      "svg": 1442,
      "Ġsign": 1443,
      "Ġsame": 1444,
      "Ġver": 1445,
      "icense": 1446,
      "ark": 1447,
      "rame": 1448,
      "ical": 1449,
      "ĠY": 1450,
      "cket": 1451,
      "21": 1452,
      "46": 1453,
      "fc": 1454,
      "**": 1455,
      "for": 1456,
      "Ġmem": 1457,
      "Ġwhe": 1458,
      "len": 1459,
      ";&#": 1460,
      "Ġpointer": 1461,
      "ages": 1462,
      "Ġmore": 1463,
      "ipher": 1464,
      "Ġ@": 1465,
      "ffer": 1466,
      "the": 1467,
      "date": 1468,
      "ESCRIP": 1469,
      "Ġ->": 1470,
      "ĠĠĠĠĠĠĠĠĠĠĠĠĠĠĠĠĠĠĠ": 1471,
      "58": 1472,
      "params": 1473,
      "ux": 1474,
      "Ġinitial": 1475,
      "Ġoptions": 1476,
      "return": 1477,
      "dir": 1478,
      "mplete": 1479,
      "EM": 1480,
      "gno": 1481,
      "SPE": 1482,
      "Ġuser": 1483,
      "Ġj": 1484,
      "Ġ.\\}": 1485,
      "she": 1486,
      ")\"": 1487,
      "vide": 1488,
      "\":\"": 1489,
      "Ġpart": 1490,
      "opj": 1491,
      "Stream": 1492,
      "fore": 1493,
      "98": 1494,
      ",\"": 1495,
      "ved": 1496,
      "visio": 1497,
      "Ġ7": 1498,
      "Ġstd": 1499,
      "system": 1500,
      "STO": 1501,
      "Ġhand": 1502,
      "Ġbeen": 1503,
      "Ġmethod": 1504,
      "foo": 1505,
      "inst": 1506,
      "src": 1507,
      "Ġter": 1508,
      "Ex": 1509,
      "lob": 1510,
      "dc": 1511,
      "48": 1512,
      "ins": 1513,
      "nection": 1514,
      "ative": 1515,
      "Content": 1516,
      "SPEC": 1517,
      "Ġ:": 1518,
      "TAX": 1519,
      "ĠENG": 1520,
      "ache": 1521,
      "dif": 1522,
      "Ġmess": 1523,
      "Ġ%": 1524,
      "ĠENGINE": 1525,
      "etw": 1526,
      ">.</": 1527,
      "CE": 1528,
      "Group": 1529,
      "CON": 1530,
      "icon": 1531,
      "Ġthan": 1532,
      "ep": 1533,
      "AND": 1534,
      "aria": 1535,
      "write": 1536,
      "os": 1537,
      "SYNTAX": 1538,
      "UP": 1539,
      "emp": 1540,
      "'s": 1541,
      "Ġexample": 1542,
      "target": 1543,
      "display": 1544,
      "prec": 1545,
      ">&#": 1546,
      "tribute": 1547,
      ">.": 1548,
      "ggle": 1549,
      "sub": 1550,
      "lex": 1551,
      "Ġfirst": 1552,
      "ors": 1553,
      "95": 1554,
      "Ġqu": 1555,
      "mlabels": 1556,
      "fter": 1557,
      "px": 1558,
      "ven": 1559,
      "umentation": 1560,
      "Ġimport": 1561,
      "><!--": 1562,
      "Comp": 1563,
      "Ġreturned": 1564,
      "ALU": 1565,
      "mary": 1566,
      "decl": 1567,
      "CRE": 1568,
      "eturn": 1569,
      "Set": 1570,
      "raph": 1571,
      "ore": 1572,
      "31": 1573,
      "ire": 1574,
      ":</": 1575,
      "30": 1576,
      "Ġinformation": 1577,
      "TH": 1578,
      "ĠBIO": 1579,
      "ertific": 1580,
      "AB": 1581,
      "76": 1582,
      "Ġel": 1583,
      "ba": 1584,
      "ESCRIPTION": 1585,
      "Ref": 1586,
      "PUB": 1587,
      "Ġhl": 1588,
      "ĠSee": 1589,
      "memItemLeft": 1590,
      "ely": 1591,
      "memItemRight": 1592,
      "Book": 1593,
      "bio": 1594,
      "ea": 1595,
      "Ġstart": 1596,
      "mit": 1597,
      "Ġ8": 1598,
      ">(": 1599,
      "STORE": 1600,
      "dv": 1601,
      "Ġits": 1602,
      "LIC": 1603,
      "Ġ\"\"": 1604,
      "ery": 1605,
      "Ġnon": 1606,
      "TO": 1607,
      "75": 1608,
      "')": 1609,
      "xygen": 1610,
      "TP": 1611,
      "device": 1612,
      "num": 1613,
      "ypes": 1614,
      "Ġlo": 1615,
      "que": 1616,
      "MA": 1617,
      "Ġevent": 1618,
      ";:": 1619,
      "Ġaria": 1620,
      "ick": 1621,
      "Error": 1622,
      "ĠQ": 1623,
      "42": 1624,
      "45": 1625,
      "lication": 1626,
      "Ġ6": 1627,
      "Ġcalled": 1628,
      "ments": 1629,
      "ero": 1630,
      "sheet": 1631,
      ";:&#": 1632,
      "Ġprocess": 1633,
      "light": 1634,
      "Ġmatch": 1635,
      "aration": 1636,
      "TER": 1637,
      "andard": 1638,
      "itten": 1639,
      "bers": 1640,
      "uration": 1641,
      "Ġcor": 1642,
      "Ġsuccess": 1643,
      "Ġlength": 1644,
      "''": 1645,
      "bf": 1646,
      "opy": 1647,
      "SIS": 1648,
      "MF": 1649,
      "BIT": 1650,
      "VER": 1651,
      "enu": 1652,
      "ess": 1653,
      "lector": 1654,
      "Ġeach": 1655,
      "Ġcmake": 1656,
      "Ġabo": 1657,
      "Ġparameter": 1658,
      "Ġ<!--": 1659,
      "Se": 1660,
      "Ġinto": 1661,
      "dup": 1662,
      "Ġsome": 1663,
      "ify": 1664,
      "cf": 1665,
      "stream": 1666,
      "Ġlibrary": 1667,
      "ode": 1668,
      ">\"": 1669,
      "IL": 1670,
      "classWP": 1671,
      "sum": 1672,
      "Ġcheck": 1673,
      "},": 1674,
      "\">#": 1675,
      "sidebar": 1676,
      "define": 1677,
      "OPSIS": 1678,
      "toc": 1679,
      "Ġ)": 1680,
      "Ġcharacter": 1681,
      "ATTRIBUTE": 1682,
      "tocol": 1683,
      "Get": 1684,
      "Ġ'\\": 1685,
      "Ġsuch": 1686,
      "026": 1687,
      "ose": 1688,
      "inal": 1689,
      "Ġbytes": 1690,
      "msp": 1691,
      "lease": 1692,
      "ility": 1693,
      "Ġrun": 1694,
      "of": 1695,
      "Generator": 1696,
      "49": 1697,
      "78": 1698,
      "Ġds": 1699,
      "structlib": 1700,
      "Data": 1701,
      "tab": 1702,
      "Ġmult": 1703,
      "Ġ!": 1704,
      "gn": 1705,
      "Element": 1706,
      "lp": 1707,
      "Ġreg": 1708,
      "coding": 1709,
      "Ġext": 1710,
      "nd": 1711,
      "mspub": 1712,
      "Ġra": 1713,
      "CERT": 1714,
      "mal": 1715,
      "para": 1716,
      "fil": 1717,
      "Ġback": 1718,
      "Ġcase": 1719,
      "rs": 1720,
      "Ġpoint": 1721,
      "Ġcontext": 1722,
      "gor": 1723,
      "dic": 1724,
      "ia": 1725,
      "STR": 1726,
      "Ġafter": 1727,
      "Ġpack": 1728,
      "65": 1729,
      "complete": 1730,
      "ifier": 1731,
      "Ġallow": 1732,
      "quo": 1733,
      "nect": 1734,
      "ĠrF": 1735,
      "iction": 1736,
      "ĠSet": 1737,
      "Ġtarget": 1738,
      "Ġac": 1739,
      "ence": 1740,
      "69": 1741,
      "Ġwr": 1742,
      "80": 1743,
      "ically": 1744,
      "SP": 1745,
      "sk": 1746,
      "hidden": 1747,
      "PEN": 1748,
      "ain": 1749,
      "Ġhttp": 1750,
      "Ġsection": 1751,
      "Ġstat": 1752,
      "Ġprogram": 1753,
      "this": 1754,
      "CL": 1755,
      "flags": 1756,
      "().": 1757,
      "nap": 1758,
      "ti": 1759,
      "precated": 1760,
      "Ġ**": 1761,
      "dent": 1762,
      "Ġsee": 1763,
      "Ġ==": 1764,
      "Ġdirectory": 1765,
      "wise": 1766,
      "left": 1767,
      "module": 1768,
      "ename": 1769,
      "Ġrole": 1770,
      "default": 1771,
      "ĠJ": 1772,
      "Ptr": 1773,
      "Ġparameters": 1774,
      "Ġwidth": 1775,
      "74": 1776,
      "TS": 1777,
      "79": 1778,
      "ĠĠĠĠĠĠĠĠĠĠĊ": 1779,
      "====": 1780,
      "GET": 1781,
      "view": 1782,
      "Ġlong": 1783,
      "virt": 1784,
      "pres": 1785,
      "process": 1786,
      "CSP": 1787,
      "Re": 1788,
      "Ġblock": 1789,
      "format": 1790,
      "68": 1791,
      "nr": 1792,
      "ound": 1793,
      "page": 1794,
      "ĠWhen": 1795,
      "Object": 1796,
      "Ġrequest": 1797,
      "US": 1798,
      "ighlight": 1799,
      "ask": 1800,
      "footer": 1801,
      "itional": 1802,
      "Ġ\"-": 1803,
      "BITYPE": 1804,
      "args": 1805,
      "pack": 1806,
      "HA": 1807,
      "Str": 1808,
      "Collector": 1809,
      "Ġadded": 1810,
      "Context": 1811,
      "static": 1812,
      "ĠAS": 1813,
      "git": 1814,
      "ful": 1815,
      "ertificate": 1816,
      "\")": 1817,
      "enc": 1818,
      "user": 1819,
      "Ġpage": 1820,
      "PL": 1821,
      "Ġprint": 1822,
      "Ġem": 1823,
      "##": 1824,
      "licy": 1825,
      "Style": 1826,
      "ublic": 1827,
      "Ġref": 1828,
      "Ġdevice": 1829,
      "ired": 1830,
      "Ġaction": 1831,
      "xml": 1832,
      "Ġtermin": 1833,
      "mb": 1834,
      "fp": 1835,
      "move": 1836,
      "Ġinteg": 1837,
      "Ġlog": 1838,
      "Ġfilter": 1839,
      "OK": 1840,
      "LIB": 1841,
      "OL": 1842,
      "LSO": 1843,
      "ĠALSO": 1844,
      "Ġwork": 1845,
      "old": 1846,
      "mode": 1847,
      "Ġstream": 1848,
      "attern": 1849,
      "ictionBook": 1850,
      "Ġopen": 1851,
      "Ġthese": 1852,
      "lose": 1853,
      "62": 1854,
      "ton": 1855,
      "Ġaccess": 1856,
      "tx": 1857,
      "82": 1858,
      "53": 1859,
      "sing": 1860,
      "lean": 1861,
      "ware": 1862,
      "IST": 1863,
      "Ġca": 1864,
      "Ġunder": 1865,
      "GS": 1866,
      "Ġelse": 1867,
      "40": 1868,
      "vert": 1869,
      "ĠYou": 1870,
      "Listener": 1871,
      "go": 1872,
      "ACK": 1873,
      "ĠEC": 1874,
      "present": 1875,
      "Ġtoggle": 1876,
      "Ġdiff": 1877,
      "opyright": 1878,
      "NU": 1879,
      "ĠCon": 1880,
      "vious": 1881,
      "Ġ\\\"": 1882,
      "Ġbefore": 1883,
      "GE": 1884,
      "Ġtest": 1885,
      "bug": 1886,
      "Ã¤": 1887,
      "Ġmessage": 1888,
      "start": 1889,
      "Ġ...": 1890,
      "yn": 1891,
      "ler": 1892,
      "witter": 1893,
      "Ġbuffer": 1894,
      "Name": 1895,
      "ideo": 1896,
      "CRMF": 1897,
      "reg": 1898,
      "namespace": 1899,
      "967": 1900,
      "83": 1901,
      "Ġmemory": 1902,
      "EE": 1903,
      "52": 1904,
      "DA": 1905,
      "OT": 1906,
      "009": 1907,
      "Ġinstead": 1908,
      "sm": 1909,
      "twitter": 1910,
      "(^": 1911,
      "Ġfail": 1912,
      "72": 1913,
      "ĠEx": 1914,
      "spec": 1915,
      "SIG": 1916,
      "dev": 1917,
      "Ġexcept": 1918,
      "Ġcontrol": 1919,
      "abled": 1920,
      "['": 1921,
      "ĠRSA": 1922,
      "ecut": 1923,
      "ĠLicense": 1924,
      "ĠNAME": 1925,
      "ume": 1926,
      "pos": 1927,
      "enerated": 1928,
      "Ġ\\*(": 1929,
      "Ġexp": 1930,
      "SION": 1931,
      "Ġcopy": 1932,
      "000": 1933,
      "round": 1934,
      "Ġwindow": 1935,
      "Ġserver": 1936,
      "ager": 1937,
      "92": 1938,
      "FF": 1939,
      "\":[": 1940,
      "CP": 1941,
      "print": 1942,
      "ĠPro": 1943,
      "'t": 1944,
      "Ġthere": 1945,
      "AV": 1946,
      "mpro": 1947,
      "finition": 1948,
      "FictionBook": 1949,
      "ĠRe": 1950,
      "pri": 1951,
      "dio": 1952,
      "50": 1953,
      "63": 1954,
      "gest": 1955,
      "ized": 1956,
      "Ġfield": 1957,
      "Ġsearch": 1958,
      "ays": 1959,
      "Ġthey": 1960,
      "test": 1961,
      "43": 1962,
      "Ġimage": 1963,
      "ĠAn": 1964,
      "Char": 1965,
      "Ġtrans": 1966,
      "requ": 1967,
      "ither": 1968,
      "90": 1969,
      "gorith": 1970,
      "Ġneed": 1971,
      "Ġarray": 1972,
      ",-": 1973,
      "ASN": 1974,
      "comment": 1975,
      "Ġpa": 1976,
      "summary": 1977,
      "angu": 1978,
      "PKCS": 1979,
      "librevenge": 1980,
      "REQ": 1981,
      "ble": 1982,
      "Ġalloc": 1983,
      "ĠReturn": 1984,
      "RL": 1985,
      "property": 1986,
      "less": 1987,
      "``": 1988,
      "Ġact": 1989,
      "find": 1990,
      "PRO": 1991,
      "ride": 1992,
      "stylesheet": 1993,
      "uble": 1994,
      "DB": 1995,
      "attr": 1996,
      "bit": 1997,
      "Ġend": 1998,
      "ĠPKCS": 1999,
      "Ġsince": 2000,
      "Äĥ": 2001,
      "term": 2002,
      "ccur": 2003,
      "POINT": 2004,
      "81": 2005,
      "60": 2006,
      "EXT": 2007,
      "raw": 2008,
      "libebook": 2009,
      "41": 2010,
      "with": 2011,
      "73": 2012,
      "config": 2013,
      "ĠTr": 2014,
      "51": 2015,
      "du": 2016,
      "Ġwhere": 2017,
      "EST": 2018,
      "Ġflags": 2019,
      "ome": 2020,
      "pa": 2021,
      "Ġvalid": 2022,
      "Ġexist": 2023,
      "FOR": 2024,
      "YP": 2025,
      "Ġ10": 2026,
      "ugh": 2027,
      "has": 2028,
      "Ġmodule": 2029,
      "net": 2030,
      "PI": 2031,
      "ithub": 2032,
      "ĠUn": 2033,
      "ge": 2034,
      "']": 2035,
      "arrow": 2036,
      "OD": 2037,
      "declaration": 2038,
      "press": 2039,
      "\\:": 2040,
      "wo": 2041,
      "ĠĠĠĠĠĠĠĠĠĠĠĠ": 2042,
      "unsigned": 2043,
      "Ġindic": 2044,
      "ttc": 2045,
      "ttname": 2046,
      "Ġelement": 2047,
      "termin": 2048,
      "action": 2049,
      "ases": 2050,
      "Ġsto": 2051,
      "IGHT": 2052,
      "Ġcomm": 2053,
      "over": 2054,
      "false": 2055,
      "tgt": 2056,
      "paramtype": 2057,
      "ĠNote": 2058,
      "order": 2059,
      "Ġhidden": 2060,
      "PENSSL": 2061,
      "ater": 2062,
      "dis": 2063,
      "ĠSub": 2064,
      "malink": 2065,
      "Ġnames": 2066,
      "Ġ&#": 2067,
      "permalink": 2068,
      "refix": 2069,
      "memtitle": 2070,
      "9670": 2071,
      "alue": 2072,
      "memdoc": 2073,
      "mproto": 2074,
      "memproto": 2075,
      "Ġframe": 2076,
      "ended": 2077,
      "mdesc": 2078,
      "ECT": 2079,
      "EC": 2080,
      "Ġsupported": 2081,
      "Un": 2082,
      "91": 2083,
      "bed": 2084,
      "Ġbeh": 2085,
      "github": 2086,
      "viron": 2087,
      "ĠK": 2088,
      "ffect": 2089,
      "PR": 2090,
      "ĠVersion": 2091,
      "combo": 2092,
      "DR": 2093,
      "ALUE": 2094,
      "keycombo": 2095,
      "Ġlocation": 2096,
      "iple": 2097,
      "BO": 2098,
      "Definition": 2099,
      "Ġgroup": 2100,
      "Image": 2101,
      "61": 2102,
      "Ġalign": 2103,
      "Ġpri": 2104,
      "manual": 2105,
      "erl": 2106,
      "argin": 2107,
      "lab": 2108,
      "ALL": 2109,
      "93": 2110,
      "Ġclient": 2111,
      "sudo": 2112,
      "->": 2113,
      "RET": 2114,
      "Ġ[]": 2115,
      "ĠSYN": 2116,
      "Ġspecific": 2117,
      "Ġdocutils": 2118,
      "ground": 2119,
      "xref": 2120,
      "down": 2121,
      "Ġchannel": 2122,
      "but": 2123,
      "options": 2124,
      "Ġcharacters": 2125,
      "utf": 2126,
      "Ġdefined": 2127,
      "ape": 2128,
      "IV": 2129,
      "URN": 2130,
      "UTF": 2131,
      "aces": 2132,
      "Ġvideo": 2133,
      "Ġreference": 2134,
      "ns": 2135,
      "perties": 2136,
      "igation": 2137,
      "RETURN": 2138,
      "Ġvalign": 2139,
      "child": 2140,
      "ĠCo": 2141,
      "odd": 2142,
      "ATE": 2143,
      "ased": 2144,
      "Ġstandard": 2145,
      "can": 2146,
      "ĠASN": 2147,
      "ORY": 2148,
      "Ġdeta": 2149,
      "imum": 2150,
      "Ġoccur": 2151,
      "FLA": 2152,
      "ingle": 2153,
      "Ġinteger": 2154,
      "Ġown": 2155,
      "atch": 2156,
      "PD": 2157,
      "respon": 2158,
      "71": 2159,
      "ĠSt": 2160,
      "AUT": 2161,
      "202": 2162,
      "inux": 2163,
      "anguage": 2164,
      "quiv": 2165,
      "FILE": 2166,
      "valid": 2167,
      "true": 2168,
      "Ġchang": 2169,
      "ng": 2170,
      "Ġdescri": 2171,
      "PRE": 2172,
      "Ġsetting": 2173,
      "\\(^": 2174,
      "Ġwithout": 2175,
      "vided": 2176,
      "ared": 2177,
      "Ġrepresent": 2178,
      "adding": 2179,
      "ĠAq": 2180,
      "Ġcertificate": 2181,
      "adata": 2182,
      "ice": 2183,
      "comm": 2184,
      "fer": 2185,
      "ĠSYNOPSIS": 2186,
      "256": 2187,
      "deci": 2188,
      "Ã©": 2189,
      "ypen": 2190,
      "resent": 2191,
      "ttdeci": 2192,
      "SEE": 2193,
      "create": 2194,
      "DAY": 2195,
      "Ġmodif": 2196,
      "fs": 2197,
      "conf": 2198,
      "Ġtop": 2199,
      "~~": 2200,
      "gitlab": 2201,
      "avi": 2202,
      "ches": 2203,
      "OPY": 2204,
      "ypename": 2205,
      "Ġbit": 2206,
      "Ġpassed": 2207,
      "scale": 2208,
      "field": 2209,
      "tag": 2210,
      "GNO": 2211,
      "Ġtable": 2212,
      "APP": 2213,
      "\"\"\"": 2214,
      "ict": 2215,
      "Ġmax": 2216,
      "gi": 2217,
      "tree": 2218,
      "contents": 2219,
      "menu": 2220,
      "HOR": 2221,
      "rl": 2222,
      "ĠOPENSSL": 2223,
      "ormal": 2224,
      "ension": 2225,
      "pty": 2226,
      "----------------": 2227,
      "Ġtra": 2228,
      "MEN": 2229,
      "Ġ(.": 2230,
      "Ġpos": 2231,
      "direct": 2232,
      "Ġalgorith": 2233,
      "gnome": 2234,
      "ush": 2235,
      "udio": 2236,
      "tract": 2237,
      "_(": 2238,
      "Ġlen": 2239,
      "cap": 2240,
      "see": 2241,
      "Ġsets": 2242,
      "cp": 2243,
      "ob": 2244,
      "length": 2245,
      "Ġzero": 2246,
      "Sh": 2247,
      "Init": 2248,
      "tom": 2249,
      "align": 2250,
      "ĠDefault": 2251,
      "App": 2252,
      "xa": 2253,
      "Doc": 2254,
      "count": 2255,
      "Ġtwo": 2256,
      "acro": 2257,
      "RIGHT": 2258,
      "ui": 2259,
      "Ġdev": 2260,
      "Ġposs": 2261,
      "query": 2262,
      "MAC": 2263,
      "Ġnav": 2264,
      "Ġob": 2265,
      "Ġĉ": 2266,
      "Ġoperation": 2267,
      "ĠDESCRIPTION": 2268,
      "Ġdisplay": 2269,
      "place": 2270,
      "TAR": 2271,
      "none": 2272,
      "vironment": 2273,
      "ATION": 2274,
      "Ġuint": 2275,
      "allback": 2276,
      "Component": 2277,
      "ices": 2278,
      "vid": 2279,
      "70": 2280,
      "ĠAl": 2281,
      "Ġwere": 2282,
      "ĠĠĠĠĠĠĠĠĠĠĠĠĠĠĠĠĠĠĠĠĠĠĠ": 2283,
      "mote": 2284,
      "ĠPEM": 2285,
      "ched": 2286,
      "ways": 2287,
      "classlibrevenge": 2288,
      "Ġexecut": 2289,
      "ustom": 2290,
      "button": 2291,
      "ĠHT": 2292,
      "\">&": 2293,
      "ixed": 2294,
      ";\"": 2295,
      "NULL": 2296,
      "parse": 2297,
      "oci": 2298,
      "arning": 2299,
      "Ġapplication": 2300,
      "highlight": 2301,
      "=\"../_": 2302,
      "Ġarguments": 2303,
      "GNOME": 2304,
      "pect": 2305,
      "Reference": 2306,
      "Met": 2307,
      "uring": 2308,
      "ld": 2309,
      "een": 2310,
      "kitt": 2311,
      "ĠSubsection": 2312,
      "cond": 2313,
      "Ġflag": 2314,
      "Ġspace": 2315,
      "Option": 2316,
      "ttdef": 2317,
      "Ġoff": 2318,
      "help": 2319,
      "utls": 2320,
      "TARGET": 2321,
      "Ġnull": 2322,
      "project": 2323,
      "ular": 2324,
      "Ġ2026": 2325,
      "licit": 2326,
      "Ġcipher": 2327,
      "CTYPE": 2328,
      "Ġ()": 2329,
      "ĠOn": 2330,
      "handle": 2331,
      "Ġeither": 2332,
      "err": 2333,
      "Ġbel": 2334,
      "auto": 2335,
      "buf": 2336,
      "etween": 2337,
      "Aqs": 2338,
      "object": 2339,
      "tin": 2340,
      "event": 2341,
      "tributes": 2342,
      "Ġident": 2343,
      "classlibebook": 2344,
      "classlibvisio": 2345,
      "Ġform": 2346,
      "ics": 2347,
      "],\"": 2348,
      "iled": 2349,
      "Ġdocumentation": 2350,
      "address": 2351,
      "(?": 2352,
      "mount": 2353,
      "Ġimplementation": 2354,
      "processor": 2355,
      "license": 2356,
      "imp": 2357,
      "Ġsingle": 2358,
      "dvb": 2359,
      "utput": 2360,
      "Ġconnection": 2361,
      "Ġinclude": 2362,
      "image": 2363,
      "Ġautocomplete": 2364,
      "strong": 2365,
      "ottom": 2366,
      "Ġdifferen": 2367,
      "Ġ$(": 2368,
      "etwork": 2369,
      "Ġotherwise": 2370,
      "ITY": 2371,
      "SO": 2372,
      "LOC": 2373,
      "Ġtag": 2374,
      "Tr": 2375,
      "Inter": 2376,
      "ted": 2377,
      "Ġbehavi": 2378,
      "Ġlike": 2379,
      "API": 2380,
      "Ġcaller": 2381,
      "COMP": 2382,
      "Proc": 2383,
      "Ġthem": 2384,
      "parameters": 2385,
      "node": 2386,
      "from": 2387,
      "Ġ<!": 2388,
      "medi": 2389,
      "Ġport": 2390,
      "mark": 2391,
      "IR": 2392,
      "witch": 2393,
      "obj": 2394,
      "Ġhead": 2395,
      "DOCTYPE": 2396,
      "alloc": 2397,
      "Ġfe": 2398,
      "Ġvia": 2399,
      "ĠTo": 2400,
      "glib": 2401,
      "ĠĠĠĠĠĠĠĠĠĠĠĠĠ": 2402,
      "Ġnow": 2403,
      "ĠAPI": 2404,
      "Ġbetween": 2405,
      "Ġdescription": 2406,
      "...": 2407,
      "OPYRIGHT": 2408,
      "cle": 2409,
      "Ġsk": 2410,
      "ĠIP": 2411,
      "Ġyour": 2412,
      "Ġfree": 2413,
      "Ġspecify": 2414,
      "crypt": 2415,
      "velop": 2416,
      "agick": 2417,
      "iss": 2418,
      "max": 2419,
      "OB": 2420,
      "exp": 2421,
      "ernel": 2422,
      "Ġcreated": 2423,
      "LOW": 2424,
      "ERR": 2425,
      "Ġthread": 2426,
      "ryption": 2427,
      "Ġassoci": 2428,
      "root": 2429,
      "Ġdepen": 2430,
      "PDX": 2431,
      "ĠSPDX": 2432,
      "ute": 2433,
      "chang": 2434,
      "lines": 2435,
      "ILE": 2436,
      "Ġencoding": 2437,
      "Ġ});": 2438,
      "Ġstate": 2439,
      "*</": 2440,
      "ipel": 2441,
      "gments": 2442,
      "quence": 2443,
      "Ġmultiple": 2444,
      "video": 2445,
      "wh": 2446,
      "next": 2447,
      "BU": 2448,
      "Ġconfiguration": 2449,
      "Gio": 2450,
      "ĠPerl": 2451,
      "Ġaccept": 2452,
      "ariant": 2453,
      "cpp": 2454,
      "Ġprovided": 2455,
      "SIGN": 2456,
      "This": 2457,
      "imple": 2458,
      "Property": 2459,
      "tra": 2460,
      "ority": 2461,
      "0001": 2462,
      "Ġnode": 2463,
      "doxygen": 2464,
      "CREEN": 2465,
      "EAD": 2466,
      "std": 2467,
      "ols": 2468,
      "Ġprovide": 2469,
      "ement": 2470,
      "libmspub": 2471,
      "ENT": 2472,
      "Ġpattern": 2473,
      "Event": 2474,
      "OF": 2475,
      "Ġorder": 2476,
      "level": 2477,
      "Add": 2478,
      "uint": 2479,
      "etc": 2480,
      "ĠCopyright": 2481,
      "policy": 2482,
      "ization": 2483,
      "example": 2484,
      "Res": 2485,
      "Ġrespon": 2486,
      "tries": 2487,
      "ĠAll": 2488,
      "VALUE": 2489,
      "APPING": 2490,
      "older": 2491,
      "Ġheader": 2492,
      "ĠTYPE": 2493,
      "Ġuses": 2494,
      "MAPPING": 2495,
      "IE": 2496,
      "Ġlast": 2497,
      "qual": 2498,
      "Ġcommands": 2499,
      "Ġcallback": 2500,
      "Ġut": 2501,
      "match": 2502,
      "Value": 2503,
      "ken": 2504,
      "Ġmake": 2505,
      "ATH": 2506,
      "ields": 2507,
      "()\"": 2508,
      "Ġrec": 2509,
      "vfunc": 2510,
      "Ġoverride": 2511,
      "keywordtype": 2512,
      "URL": 2513,
      "FS": 2514,
      "copy": 2515,
      "Ġcalls": 2516,
      "bl": 2517,
      "oo": 2518,
      "Ġhandle": 2519,
      "SCREEN": 2520,
      "pass": 2521,
      "ually": 2522,
      "Ġcorrespon": 2523,
      "Ġhost": 2524,
      "spect": 2525,
      "Ġaddress": 2526,
      "Ġnr": 2527,
      "even": 2528,
      "only": 2529,
      "ĠThese": 2530,
      "preprocessor": 2531,
      "ception": 2532,
      "Ġverb": 2533,
      "ulti": 2534,
      "Ġigno": 2535,
      "rel": 2536,
      "Ġlevel": 2537,
      "tack": 2538,
      "Ġrange": 2539,
      "Ġbuil": 2540,
      "tect": 2541,
      "ĠDes": 2542,
      "stro": 2543,
      "temp": 2544,
      "ily": 2545,
      "ATTRIBUTES": 2546,
      "JECT": 2547,
      "STRING": 2548,
      "METH": 2549,
      "SET": 2550,
      "docgen": 2551,
      "ister": 2552,
      "flex": 2553,
      "sec": 2554,
      "links": 2555,
      "Ġ16": 2556,
      "Ġtab": 2557,
      "parameter": 2558,
      "BA": 2559,
      "HTML": 2560,
      "Ġshall": 2561,
      "Ġpossible": 2562,
      "Ġdetails": 2563,
      "ling": 2564,
      "ĠCM": 2565,
      "002": 2566,
      "ĠLinux": 2567,
      "Ġvar": 2568,
      "ĠPO": 2569,
      "xp": 2570,
      "XML": 2571,
      "Ġwrite": 2572,
      "&&": 2573,
      "Ġ]": 2574,
      "Ġfound": 2575,
      "Ġdifferent": 2576,
      "ETTER": 2577,
      "Ġbuild": 2578,
      "001": 2579,
      "append": 2580,
      "Ġabove": 2581,
      "Input": 2582,
      "ĠÃ": 2583,
      "ormat": 2584,
      "null": 2585,
      "Ġabout": 2586,
      "ient": 2587,
      "LIN": 2588,
      "herit": 2589,
      "ĠLETTER": 2590,
      "web": 2591,
      "ptr": 2592,
      "\".": 2593,
      "Ġindex": 2594,
      "187": 2595,
      "Link": 2596,
      "Ġcontents": 2597,
      "FA": 2598,
      "ISS": 2599,
      "rag": 2600,
      "Ġboth": 2601,
      "Ġhow": 2602,
      "METHOD": 2603,
      "Ġ\\}": 2604,
      "Ġnamespace": 2605,
      "Ġplace": 2606,
      "Ġinterface": 2607,
      "inary": 2608,
      "Ġmacro": 2609,
      "Ġ(*": 2610,
      "LM": 2611,
      "ĠSpecif": 2612,
      "sep": 2613,
      "install": 2614,
      "Ġnone": 2615,
      "sudoers": 2616,
      "blob": 2617,
      "imil": 2618,
      "Ġ``": 2619,
      "atim": 2620,
      "Ġalways": 2621,
      "Ġfailure": 2622,
      "connect": 2623,
      "imilar": 2624,
      "Ġtypes": 2625,
      "ively": 2626,
      "mac": 2627,
      "ĠDo": 2628,
      "GLib": 2629,
      "lete": 2630,
      "Ġbeing": 2631,
      "select": 2632,
      "ĠOCSP": 2633,
      "tribution": 2634,
      "Ġcount": 2635,
      "ACERT": 2636,
      "Ġbelow": 2637,
      "opt": 2638,
      "CRL": 2639,
      "Ġim": 2640,
      "();": 2641,
      "Ġhtml": 2642,
      "Ġ/><": 2643,
      "SIX": 2644,
      "Ar": 2645,
      "erenced": 2646,
      "ftware": 2647,
      "Magick": 2648,
      "So": 2649,
      "Ġraise": 2650,
      "lick": 2651,
      "Ġwhether": 2652,
      "Ġverbatim": 2653,
      "tax": 2654,
      "Ġauth": 2655,
      "ipeline": 2656,
      "other": 2657,
      "DESCRIPTION": 2658,
      "Ġtak": 2659,
      "thon": 2660,
      "Ġ('": 2661,
      "lobal": 2662,
      "Ã¶": 2663,
      "Ġdocument": 2664,
      "rsquo": 2665,
      "TLS": 2666,
      "Ġ^": 2667,
      "License": 2668,
      "asic": 2669,
      "viewport": 2670,
      "lu": 2671,
      "Ġterminal": 2672,
      "Ġrequired": 2673,
      "'),": 2674,
      "TED": 2675,
      "ector": 2676,
      "tadata": 2677,
      "Ġright": 2678,
      "\"/": 2679,
      "Ġentry": 2680,
      "coded": 2681,
      "Ġcalling": 2682,
      "To": 2683,
      "client": 2684,
      "remove": 2685,
      "DBus": 2686,
      "host": 2687,
      "Ġexpress": 2688,
      "ĠIX": 2689,
      "By": 2690,
      "Ġcontains": 2691,
      "Ġfa": 2692,
      "Ġ12": 2693,
      "DSA": 2694,
      "nown": 2695,
      "Ġautomat": 2696,
      "FH": 2697,
      "hr": 2698,
      "Ġinclu": 2699,
      "ATED": 2700,
      "oken": 2701,
      "bottom": 2702,
      "lied": 2703,
      "Ġassociated": 2704,
      "'.": 2705,
      "ugins": 2706,
      "ĠUse": 2707,
      "ixel": 2708,
      "since": 2709,
      "Ġconfigure": 2710,
      "qxp": 2711,
      "openssl": 2712,
      "xs": 2713,
      "Ġfeature": 2714,
      "GEN": 2715,
      "enum": 2716,
      "Ġcause": 2717,
      "FUN": 2718,
      "Ġfilesystem": 2719,
      "protocol": 2720,
      "members": 2721,
      "Ġwritten": 2722,
      "ever": 2723,
      "base": 2724,
      "close": 2725,
      "IF": 2726,
      "Do": 2727,
      "ump": 2728,
      "resh": 2729,
      "Ġtheir": 2730,
      "','": 2731,
      "izable": 2732,
      "Ġtry": 2733,
      "ACE": 2734,
      "point": 2735,
      "En": 2736,
      "URE": 2737,
      "\\.": 2738,
      "cription": 2739,
      "Ġshow": 2740,
      "Ġenvironment": 2741,
      "String": 2742,
      "sig": 2743,
      "olume": 2744,
      "window": 2745,
      "Ġobtain": 2746,
      "Ġalgorithm": 2747,
      "Obj": 2748,
      "cert": 2749,
      "Output": 2750,
      "ROUP": 2751,
      "reak": 2752,
      "parator": 2753,
      "Open": 2754,
      "Ġder": 2755,
      "build": 2756,
      "seq": 2757,
      "ait": 2758,
      "cdr": 2759,
      "MM": 2760,
      "ĠGenerated": 2761,
      "river": 2762,
      "cause": 2763,
      "trie": 2764,
      "ĠID": 2765,
      ".\"": 2766,
      "my": 2767,
      "ines": 2768,
      "very": 2769,
      "Ġ\\\\": 2770,
      "Ġbool": 2771,
      "tempt": 2772,
      "Ġfont": 2773,
      "symb": 2774,
      "resizable": 2775,
      "âĢ": 2776,
      "Table": 2777,
      "Ġchange": 2778,
      "005": 2779,
      "****": 2780,
      "Ġlimit": 2781,
      "(</": 2782,
      "ĠNOT": 2783,
      "Ġprevious": 2784,
      "CRYP": 2785,
      "Ġ\\%<": 2786,
      "Ġerrors": 2787,
      "Ġinv": 2788,
      "Ġsyn": 2789,
      "Function": 2790,
      "Ġvariables": 2791,
      "Ġwould": 2792,
      "filter": 2793,
      "blem": 2794,
      "Ġdigest": 2795,
      "Ġ\\[": 2796,
      "128": 2797,
      "Ġsystemd": 2798,
      "hell": 2799,
      "ready": 2800,
      "QU": 2801,
      "ication": 2802,
      "VE": 2803,
      "deprecated": 2804,
      "snap": 2805,
      "peg": 2806,
      "Ġcreate": 2807,
      "Ġsupp": 2808,
      "Ġmin": 2809,
      "ources": 2810,
      "Ġ=>": 2811,
      "MO": 2812,
      "BOOK": 2813,
      "DER": 2814,
      "Ġmeans": 2815,
      "[]": 2816,
      "DF": 2817,
      "ĠAdded": 2818,
      "++": 2819,
      "ali": 2820,
      "Ġorig": 2821,
      "GROUP": 2822,
      "Ġitem": 2823,
      "Ġwhile": 2824,
      "DT": 2825,
      "fn": 2826,
      "board": 2827,
      "small": 2828,
      "Ġgenerator": 2829,
      "result": 2830,
      "Ġctx": 2831,
      "Ġbecause": 2832,
      "hasis": 2833,
      "nh": 2834,
      "Ġmost": 2835,
      "Ġattribute": 2836,
      "icode": 2837,
      "pan": 2838,
      "Ġab": 2839,
      "Ġ},": 2840,
      "ImageMagick": 2841,
      "Ġcomponent": 2842,
      "run": 2843,
      "ner": 2844,
      "Token": 2845,
      "Ġshort": 2846,
      ">)</": 2847,
      "Ġ201": 2848,
      "Ġhttps": 2849,
      "ĠSHA": 2850,
      "files": 2851,
      "Path": 2852,
      "Id": 2853,
      "Base": 2854,
      "=\"-": 2855,
      "Ġent": 2856,
      "control": 2857,
      "Ġprotocol": 2858,
      "Ġspec": 2859,
      "RSA": 2860,
      "zy": 2861,
      "unk": 2862,
      "Ġque": 2863,
      "emphasis": 2864,
      "Ġkeys": 2865,
      "irt": 2866,
      "ĠĠĠĠĠĠĠĠĠĠĠĠĠĠĠĠĠĠĠĠĠĠĠĠĠĠĠĠĠĠĠĠ": 2867,
      "aw": 2868,
      "Ġflo": 2869,
      "freehand": 2870,
      "CDR": 2871,
      "mon": 2872,
      "atform": 2873,
      "aries": 2874,
      "VERSION": 2875,
      "FE": 2876,
      "ALLOW": 2877,
      "jo": 2878,
      "afe": 2879,
      "ĠIndex": 2880,
      "Al": 2881,
      "ITH": 2882,
      "PATH": 2883,
      "Ġmain": 2884,
      "ibility": 2885,
      "Ġcompil": 2886,
      "typedef": 2887,
      "Ġempty": 2888,
      "symbol": 2889,
      "private": 2890,
      "creen": 2891,
      "Ġcomple": 2892,
      "srclink": 2893,
      "Ġprivate": 2894,
      "cy": 2895,
      "Ġscript": 2896,
      "ĠPar": 2897,
      "SER": 2898,
      "Ġobjects": 2899,
      "itions": 2900,
      "Ġenabled": 2901,
      "Ġjust": 2902,
      "pub": 2903,
      "ĠHTML": 2904,
      "generator": 2905,
      "()&#": 2906,
      ">(</": 2907,
      "children": 2908,
      "ron": 2909,
      "Ġop": 2910,
      "FORM": 2911,
      "Ġinterpre": 2912,
      "Ġdetermin": 2913,
      "Ġsignal": 2914,
      "paramkey": 2915,
      "LINK": 2916,
      "Ġcache": 2917,
      "hod": 2918,
      "XP": 2919,
      "Ġdescribed": 2920,
      "ĠĠĠĠĠĠĠĠĠĠ": 2921,
      "sure": 2922,
      "OCSP": 2923,
      "LANG": 2924,
      "thing": 2925,
      "Ġfre": 2926,
      "\"),": 2927,
      "olean": 2928,
      "Ġcolspan": 2929,
      "ALUES": 2930,
      "Sub": 2931,
      "context": 2932,
      "ĠZ": 2933,
      "amples": 2934,
      "inline": 2935,
      "Ġlang": 2936,
      "#\\:": 2937,
      "lm": 2938,
      "asq": 2939,
      "Ġnext": 2940,
      "Ġwant": 2941,
      "ISTORY": 2942,
      "Ġeffect": 2943,
      "Ġdeprecated": 2944,
      "Bu": 2945,
      "ĠAdd": 2946,
      "dict": 2947,
      "\"\\\\$": 2948,
      "ession": 2949,
      "Search": 2950,
      "Ġ9": 2951,
      "ĠTrue": 2952,
      "curs": 2953,
      "template": 2954,
      "ĠVALUES": 2955,
      "jpeg": 2956,
      "Ġfull": 2957,
      "Ġ\\%<#\\:": 2958,
      "Ġextension": 2959,
      "VAL": 2960,
      "rivateKey": 2961,
      "Ġsocket": 2962,
      "CC": 2963,
      "Ġ\\\\$": 2964,
      "ĠDH": 2965,
      "mes": 2966,
      "sl": 2967,
      "ICE": 2968,
      "Ġlocal": 2969,
      "Ġes": 2970,
      "Ġrout": 2971,
      "ts": 2972,
      "\">)</": 2973,
      "Ġexit": 2974,
      "/-": 2975,
      "libvisio": 2976,
      "TIONS": 2977,
      "card": 2978,
      "NUM": 2979,
      "){": 2980,
      "EBOOK": 2981,
      "FC": 2982,
      "lications": 2983,
      "Ġ\",": 2984,
      "Ġreport": 2985,
      "Ġway": 2986,
      "CU": 2987,
      "Ġcom": 2988,
      "sche": 2989,
      "dentifier": 2990,
      "Ġconvert": 2991,
      "Ġstack": 2992,
      "listitem": 2993,
      "CB": 2994,
      "Ġcannot": 2995,
      "href": 2996,
      "Ġcorresponding": 2997,
      "release": 2998,
      "imal": 2999,
      "Ġsc": 3000,
      "Ġinstall": 3001,
      "etch": 3002,
      "headerlink": 3003,
      "gnutls": 3004,
      "ĠTh": 3005,
      "Ġsimilar": 3006,
      "json": 3007,
      "((": 3008,
      "ci": 3009,
      "Â¶": 3010,
      "virtual": 3011,
      "spl": 3012,
      "Ġattempt": 3013,
      "\">Â¶": 3014,
      "\">Â¶</": 3015,
      "ĠGLib": 3016,
      "rep": 3017,
      "itor": 3018,
      "])": 3019,
      "NE": 3020,
      "========": 3021,
      "AA": 3022,
      "rough": 3023,
      "ĠDescription": 3024,
      "Box": 3025,
      "SY": 3026,
      "Ġperform": 3027,
      "ger": 3028,
      "ression": 3029,
      "pygments": 3030,
      "pping": 3031,
      "ets": 3032,
      "Ġselect": 3033,
      "coder": 3034,
      "Channel": 3035,
      ">-": 3036,
      "ĠReturns": 3037,
      "ves": 3038,
      "0002": 3039,
      "RR": 3040,
      "Ġdat": 3041,
      "Ġheight": 3042,
      "switch": 3043,
      "{\"": 3044,
      "site": 3045,
      "Ġwhat": 3046,
      "ĠRef": 3047,
      "Up": 3048,
      "SC": 3049,
      "Ġbehavior": 3050,
      "Ġrece": 3051,
      "ĠPCRE": 3052,
      "bytes": 3053,
      "Enc": 3054,
      "xb": 3055,
      "Ġmanual": 3056,
      "lip": 3057,
      "img": 3058,
      "Ġgenerated": 3059,
      "output": 3060,
      "methods": 3061,
      "we": 3062,
      "Ġpresent": 3063,
      "LICY": 3064,
      "'\\": 3065,
      "ĠIN": 3066,
      "ident": 3067,
      "InputStream": 3068,
      "\">*</": 3069,
      "ĠAuth": 3070,
      "lsquo": 3071,
      "miss": 3072,
      "ALLOWED": 3073,
      "ĠTLS": 3074,
      "MSG": 3075,
      "Ġdiv": 3076,
      "Ġdouble": 3077,
      "Ġremo": 3078,
      "Ġxml": 3079,
      "BIO": 3080,
      "CONF": 3081,
      "thread": 3082,
      "lexers": 3083,
      "Ġautomatically": 3084,
      "asqal": 3085,
      "ĠApp": 3086,
      "ĠFalse": 3087,
      "Ġcharset": 3088,
      "Ġest": 3089,
      "pi": 3090,
      "Ġbug": 3091,
      "Ġla": 3092,
      "holder": 3093,
      "Ġleft": 3094,
      "\").": 3095,
      "erator": 3096,
      "exer": 3097,
      "RECT": 3098,
      "Ġbyte": 3099,
      "AGE": 3100,
      "Ġoptional": 3101,
      "].": 3102,
      "ĠCMS": 3103,
      "document": 3104,
      "transfer": 3105,
      "margin": 3106,
      "Header": 3107,
      "ensions": 3108,
      ");</": 3109,
      "__(": 3110,
      "Length": 3111,
      "ĠDSA": 3112,
      "tls": 3113,
      "Ġtyp": 3114,
      "\">,</": 3115,
      "manager": 3116,
      "Ġlook": 3117,
      "ĠCh": 3118,
      "ctl": 3119,
      "conds": 3120,
      "Ġalready": 3121,
      "ENG": 3122,
      "Ġ/></": 3123,
      "Ġcons": 3124,
      "None": 3125,
      "aca": 3126,
      "ĠKey": 3127,
      "Ġfilename": 3128,
      "ĠAN": 3129,
      "egin": 3130,
      "Ġallocated": 3131,
      "Document": 3132,
      "/-/": 3133,
      "instance": 3134,
      "PER": 3135,
      "ĠAD": 3136,
      "'><": 3137,
      "Ġwithin": 3138,
      "ystem": 3139,
      "til": 3140,
      "Ġfields": 3141,
      "Ġlow": 3142,
      "zm": 3143,
      "AUTHOR": 3144,
      "debug": 3145,
      "ĠFunction": 3146,
      "array": 3147,
      "ories": 3148,
      "gac": 3149,
      "mpeg": 3150,
      "ĠUTF": 3151,
      "losed": 3152,
      "LL": 3153,
      "PrivateKey": 3154,
      "Ġeven": 3155,
      "bt": 3156,
      "ĠDoc": 3157,
      "For": 3158,
      "Ġed": 3159,
      "ctrl": 3160,
      "Ġkernel": 3161,
      "Po": 3162,
      "ĠName": 3163,
      "Ġexpect": 3164,
      "filename": 3165,
      "Ġinstance": 3166,
      "issu": 3167,
      "Ġproces": 3168,
      "flow": 3169,
      "argument": 3170,
      "Ġneg": 3171,
      "201": 3172,
      "ason": 3173,
      "Ġprovid": 3174,
      "mdescRight": 3175,
      "pm": 3176,
      "mdescLeft": 3177,
      ",'": 3178,
      "cm": 3179,
      "Return": 3180,
      ";\">": 3181,
      "Ġtemp": 3182,
      "irtual": 3183,
      "height": 3184,
      "008": 3185,
      "Ġcap": 3186,
      "memdesc": 3187,
      "Ġuseful": 3188,
      "eeded": 3189,
      "ĠSe": 3190,
      "Ġdistribution": 3191,
      "iB": 3192,
      "////": 3193,
      "\"/><": 3194,
      "apt": 3195,
      "ertical": 3196,
      "Ġshell": 3197,
      "Ġ'-": 3198,
      "ĠCR": 3199,
      "Line": 3200,
      "split": 3201,
      "ĠOption": 3202,
      "Ġsequence": 3203,
      "\\\\.": 3204,
      "Method": 3205,
      "Ġlines": 3206,
      "Ġwrit": 3207,
      "stamp": 3208,
      "ĠEX": 3209,
      "amily": 3210,
      "Ġaccesskey": 3211,
      "hash": 3212,
      ")(": 3213,
      "CI": 3214,
      "Ġ((": 3215,
      "Ġcompat": 3216,
      "inx": 3217,
      "env": 3218,
      "RESP": 3219,
      "frame": 3220,
      "Ġ[-": 3221,
      "ification": 3222,
      "ATIN": 3223,
      "DIR": 3224,
      "ĠPOSIX": 3225,
      "remote": 3226,
      "Ġretrie": 3227,
      "Ġprefix": 3228,
      "uch": 3229,
      "png": 3230,
      "FLAG": 3231,
      "Ġ['": 3232,
      "Ġbits": 3233,
      "Ġos": 3234,
      "MTP": 3235,
      "Ġexplicit": 3236,
      "roll": 3237,
      "Ġadditional": 3238,
      "ook": 3239,
      "ination": 3240,
      "Ġmark": 3241,
      "Ġcontaining": 3242,
      "wr": 3243,
      "Ġpackage": 3244,
      "Ġtypedef": 3245,
      "Lexer": 3246,
      "At": 3247,
      "Mo": 3248,
      "libvirt": 3249,
      "acing": 3250,
      "verify": 3251,
      "Ġrule": 3252,
      "lif": 3253,
      "Ġrespect": 3254,
      "sktop": 3255,
      "ĠLATIN": 3256,
      "msg": 3257,
      "Ġparent": 3258,
      "Ġdone": 3259,
      "Ġthose": 3260,
      "scriptor": 3261,
      "Find": 3262,
      "kitty": 3263,
      "Final": 3264,
      "Ġhash": 3265,
      "Ġappro": 3266,
      "Ġduring": 3267,
      "Ġtrue": 3268,
      "]+": 3269,
      "attribute": 3270,
      "dr": 3271,
      "eneral": 3272,
      "reate": 3273,
      "Ġpixel": 3274,
      "ĠCMake": 3275,
      "Ġmatching": 3276,
      "XX": 3277,
      "Ġsepar": 3278,
      "la": 3279,
      "Ġ32": 3280,
      "logo": 3281,
      "orage": 3282,
      "Ġalt": 3283,
      "aclass": 3284,
      "Ġxcb": 3285,
      "Ġscreen": 3286,
      "ĠERR": 3287,
      "local": 3288,
      "0003": 3289,
      ".,": 3290,
      "auth": 3291,
      "Ġwarning": 3292,
      "RAR": 3293,
      "kitten": 3294,
      "Interface": 3295,
      "ÈĻ": 3296,
      "server": 3297,
      "Ġmy": 3298,
      "ÈĽ": 3299,
      "Ġallows": 3300,
      "PUBKEY": 3301,
      "mess": 3302,
      "oggle": 3303,
      "Ġcould": 3304,
      "Cipher": 3305,
      "Address": 3306,
      "PropertyList": 3307,
      "####": 3308,
      "Man": 3309,
      "Ġad": 3310,
      "Command": 3311,
      "language": 3312,
      "last": 3313,
      "Ġpriority": 3314,
      "Ġpe": 3315,
      "Ġsuccessful": 3316,
      "cache": 3317,
      "openjpeg": 3318,
      "avl": 3319,
      "Referenced": 3320,
      "DH": 3321,
      "ords": 3322,
      "EPUB": 3323,
      "number": 3324,
      "CONFIG": 3325,
      "Ġmessages": 3326,
      "STAT": 3327,
      "sess": 3328,
      "Iter": 3329,
      "Identifier": 3330,
      "PU": 3331,
      "mer": 3332,
      "vec": 3333,
      "ABW": 3334,
      "Ġmaximum": 3335,
      "ires": 3336,
      "ERROR": 3337,
      "Ġpair": 3338,
      "ities": 3339,
      "MAX": 3340,
      "ĠSo": 3341,
      "Ġ'\\\"": 3342,
      "HAS": 3343,
      "Ġrunning": 3344,
      "aint": 3345,
      "med": 3346,
      "note": 3347,
      "ĠEn": 3348,
      "Color": 3349,
      "aded": 3350,
      "Ġ(<": 3351,
      "Ġdie": 3352,
      "offset": 3353,
      "acter": 3354,
      "Library": 3355,
      "LOCK": 3356,
      "txt": 3357,
      "border": 3358,
      "rr": 3359,
      "Ġspecial": 3360,
      "Toggle": 3361,
      "ams": 3362,
      "structopj": 3363,
      "ps": 3364,
      "when": 3365,
      "indows": 3366,
      "Ġstrings": 3367,
      "literal": 3368,
      "ĠST": 3369,
      "channel": 3370,
      "pag": 3371,
      "CTRL": 3372,
      "Ġsecond": 3373,
      "current": 3374,
      "xhtml": 3375,
      "cs": 3376,
      "Ġload": 3377,
      "ified": 3378,
      "EXTEN": 3379,
      "||": 3380,
      "CODE": 3381,
      "alt": 3382,
      "Ġside": 3383,
      "Ġneeded": 3384,
      "limit": 3385,
      "tainer": 3386,
      "Ġoperations": 3387,
      "uple": 3388,
      "UER": 3389,
      "OPT": 3390,
      "Ġchanges": 3391,
      "Ġbased": 3392,
      "ĠBN": 3393,
      "state": 3394,
      "SYNOPSIS": 3395,
      "agraph": 3396,
      "Font": 3397,
      "FLAGS": 3398,
      "Ġoffset": 3399,
      "GPL": 3400,
      "VO": 3401,
      "\\[": 3402,
      "ĠSM": 3403,
      "xc": 3404,
      "CharT": 3405,
      "Ġsupports": 3406,
      "Ġ*\"": 3407,
      "alent": 3408,
      "Time": 3409,
      "ucture": 3410,
      "interface": 3411,
      "Ġdirectly": 3412,
      "pped": 3413,
      "pol": 3414,
      "tings": 3415,
      "cr": 3416,
      "jp": 3417,
      "\\%": 3418,
      "ansp": 3419,
      "ĠCOPYRIGHT": 3420,
      "Ġnormal": 3421,
      "toggle": 3422,
      "store": 3423,
      "ging": 3424,
      "Ġroot": 3425,
      "PP": 3426,
      "syn": 3427,
      "ough": 3428,
      "CTION": 3429,
      "Ġinfo": 3430,
      "change": 3431,
      "cho": 3432,
      "Ġpublic": 3433,
      "elog": 3434,
      "ered": 3435,
      "ĠOther": 3436,
      "Ġtypename": 3437,
      "sg": 3438,
      "Ġthrough": 3439,
      "defined": 3440,
      "DTD": 3441,
      "typename": 3442,
      "background": 3443,
      "ision": 3444,
      "Ġnavigation": 3445,
      "ĠParameters": 3446,
      "ere": 3447,
      "Ġbl": 3448,
      "Ġsession": 3449,
      "Ġquery": 3450,
      "quivalent": 3451,
      "Ġcond": 3452,
      "ZE": 3453,
      "PK": 3454,
      "construct": 3455,
      "Ġexpression": 3456,
      "bin": 3457,
      "clear": 3458,
      "insert": 3459,
      "VID": 3460,
      "Ġdomain": 3461,
      "Ġstatus": 3462,
      "004": 3463,
      "Class": 3464,
      "Ġpadding": 3465,
      "OS": 3466,
      "lection": 3467,
      "emblem": 3468,
      "ĠĉĠ": 3469,
      "Ġ],": 3470,
      "ABLE": 3471,
      "Ġfreed": 3472,
      "Update": 3473,
      "EV": 3474,
      "Ġoriginal": 3475,
      "Ġplaceholder": 3476,
      "Node": 3477,
      "Ġcurrently": 3478,
      "Ġhelp": 3479,
      "Ġstored": 3480,
      "An": 3481,
      "cent": 3482,
      "ATA": 3483,
      "ĠAny": 3484,
      "Ġexisting": 3485,
      "used": 3486,
      "Ġsignature": 3487,
      "Ġversions": 3488,
      "mt": 3489,
      "ĠAr": 3490,
      "Snap": 3491,
      "call": 3492,
      "padding": 3493,
      "changelog": 3494,
      "ĠBy": 3495,
      "Ġ202": 3496,
      "xd": 3497,
      "Ġmethods": 3498,
      "aced": 3499,
      "ĠStr": 3500,
      "names": 3501,
      "mod": 3502,
      "raries": 3503,
      "Ã¥": 3504,
      "rix": 3505,
      "\">(</": 3506,
      "0004": 3507,
      "Ġvi": 3508,
      "UBLIC": 3509,
      "Ġnetwork": 3510,
      "Ġignored": 3511,
      "Ġfind": 3512,
      "Pack": 3513,
      "IA": 3514,
      "Ġpassword": 3515,
      "win": 3516,
      "pointer": 3517,
      "ks": 3518,
      "Aqt": 3519,
      "CUR": 3520,
      "Ġenc": 3521,
      "abw": 3522,
      "Ġanother": 3523,
      "Ġap": 3524,
      "Ġtri": 3525,
      "Ġgu": 3526,
      "Ġattributes": 3527,
      "basic": 3528,
      "Ġtakes": 3529,
      "umber": 3530,
      "itable": 3531,
      "replace": 3532,
      "FIX": 3533,
      "Ġenable": 3534,
      "cipher": 3535,
      "idget": 3536,
      "istory": 3537,
      "kb": 3538,
      "member": 3539,
      "Ġentries": 3540,
      "ele": 3541,
      "006": 3542,
      "paramdef": 3543,
      "Ġresponse": 3544,
      "Ġbase": 3545,
      "varlist": 3546,
      "OBJECT": 3547,
      "varlistentry": 3548,
      "desktop": 3549,
      "itted": 3550,
      "Ġencoded": 3551,
      "Ġ*</": 3552,
      "ĠWITH": 3553,
      "ĠLGPL": 3554,
      "Ġposition": 3555,
      "LD": 3556,
      "Ġrequire": 3557,
      "TE": 3558,
      "Ġopt": 3559,
      "register": 3560,
      "Result": 3561,
      "Ġ>::": 3562,
      "rst": 3563,
      "api": 3564,
      "Tree": 3565,
      "ĠFile": 3566,
      "sys": 3567,
      "Ġprodu": 3568,
      "Ġpr": 3569,
      "PRIV": 3570,
      "QXP": 3571,
      "callback": 3572,
      "igest": 3573,
      "=\"\">": 3574,
      "Sec": 3575,
      "DIST": 3576,
      "linux": 3577,
      "\");": 3578,
      "ĠRes": 3579,
      "Ġmatches": 3580,
      "]]": 3581,
      "ĠDocumentation": 3582,
      "003": 3583,
      "website": 3584,
      "types": 3585,
      "Ġdec": 3586,
      "Socket": 3587,
      "graph": 3588,
      "OUT": 3589,
      "Ġcorrect": 3590,
      "INTER": 3591,
      "CODER": 3592,
      "groupheader": 3593,
      "alc": 3594,
      "Ġhere": 3595,
      "double": 3596,
      "Ġpipeline": 3597,
      "~~~~": 3598,
      "ived": 3599,
      "Ġpress": 3600,
      "claration": 3601,
      "PREC": 3602,
      "Ġerr": 3603,
      "pk": 3604,
      "FUNC": 3605,
      "Ġhide": 3606,
      "RC": 3607,
      "wd": 3608,
      "ython": 3609,
      "join": 3610,
      "ax": 3611,
      "Ġfalse": 3612,
      "ARD": 3613,
      "'>": 3614,
      "rasqal": 3615,
      "Ġincre": 3616,
      "sert": 3617,
      "ĠPRO": 3618,
      "ops": 3619,
      "btn": 3620,
      "Ġdown": 3621,
      "MENT": 3622,
      "Nav": 3623,
      "Ġvis": 3624,
      "core": 3625,
      "ENSE": 3626,
      "Connection": 3627,
      "zero": 3628,
      "Ġevents": 3629,
      "IES": 3630,
      "ĠUI": 3631,
      "Ġcontainer": 3632,
      "ately": 3633,
      "uid": 3634,
      "bool": 3635,
      "ORT": 3636,
      "ability": 3637,
      "abase": 3638,
      "Ġspecifies": 3639,
      "equiv": 3640,
      "],[": 3641,
      "OPJ": 3642,
      "Ġarch": 3643,
      "ugin": 3644,
      "perl": 3645,
      "dh": 3646,
      "ffic": 3647,
      "ĠCURL": 3648,
      "glm": 3649,
      "Styles": 3650,
      "Ġurl": 3651,
      "epub": 3652,
      "ENCRYP": 3653,
      "pb": 3654,
      "Ġq": 3655,
      "RVNGPropertyList": 3656,
      "andom": 3657,
      "LengthGroup": 3658,
      "Ġdebug": 3659,
      "bn": 3660,
      "ĠĠĠĠĠĠĠĠĠĠĠĠĠĠĠĠĠĠĠĠĠĠĠĠĠĠĠ": 3661,
      "ĠMan": 3662,
      "tected": 3663,
      "Ġinherit": 3664,
      "Generated": 3665,
      "hed": 3666,
      "PRECATED": 3667,
      "dia": 3668,
      "ĠTCL": 3669,
      "mlx": 3670,
      "cell": 3671,
      "(?:": 3672,
      "Ġlarg": 3673,
      "ctet": 3674,
      "DIRECT": 3675,
      "Ġnamed": 3676,
      "Ġmight": 3677,
      "epubgen": 3678,
      "TEXT": 3679,
      "ULT": 3680,
      "let": 3681,
      "Ġvirtual": 3682,
      "reen": 3683,
      "message": 3684,
      "ĠSp": 3685,
      "ĠTe": 3686,
      "RAND": 3687,
      "Ġoperator": 3688,
      "Rel": 3689,
      "Copyright": 3690,
      "modif": 3691,
      "Di": 3692,
      "aker": 3693,
      "Ġbuf": 3694,
      "ISSUER": 3695,
      "Tra": 3696,
      ">;</": 3697,
      "mar": 3698,
      "Ġdriver": 3699,
      "mk": 3700,
      "erences": 3701,
      "service": 3702,
      "tot": 3703,
      "ift": 3704,
      "Ġgit": 3705,
      ".__": 3706,
      "aster": 3707,
      "IS": 3708,
      "BE": 3709,
      "Ġtm": 3710,
      "ward": 3711,
      "LIBRAR": 3712,
      "Ġprovides": 3713,
      "ze": 3714,
      "ik": 3715,
      "\\^": 3716,
      "KDF": 3717,
      "connection": 3718,
      "IMP": 3719,
      "cmd": 3720,
      "first": 3721,
      "Ġassign": 3722,
      "ĠTS": 3723,
      "Ġwell": 3724,
      "Ġbinary": 3725,
      "fl": 3726,
      "posit": 3727,
      "Ġconnect": 3728,
      "Ġmany": 3729,
      "pop": 3730,
      "(--": 3731,
      "Ġaga": 3732,
      "ather": 3733,
      "POLICY": 3734,
      "usr": 3735,
      "ĠThere": 3736,
      "Ġcop": 3737,
      "Ġresults": 3738,
      "xf": 3739,
      "Ġdes": 3740,
      "update": 3741,
      "depen": 3742,
      "play": 3743,
      "IM": 3744,
      "ĠInter": 3745,
      "sort": 3746,
      "CESS": 3747,
      "][": 3748,
      "ane": 3749,
      "cedure": 3750,
      "Ġstore": 3751,
      "Ġusage": 3752,
      "Ġstill": 3753,
      "ĉĉ": 3754,
      "util": 3755,
      "urses": 3756,
      "ĠGNU": 3757,
      "velopment": 3758,
      "package": 3759,
      "odu": 3760,
      "ATAV": 3761,
      "Ġcommit": 3762,
      "sph": 3763,
      "status": 3764,
      "ĠWindows": 3765,
      "nt": 3766,
      "Ġmetadata": 3767,
      "Ġelif": 3768,
      "READ": 3769,
      "xe": 3770,
      "ERTI": 3771,
      "VIR": 3772,
      "Qu": 3773,
      "Ġgenerate": 3774,
      "Sign": 3775,
      "PM": 3776,
      "SHA": 3777,
      "Ġexternal": 3778,
      "Ġapplications": 3779,
      "directory": 3780,
      "DEPRECATED": 3781,
      "sphinx": 3782,
      "domain": 3783,
      "Ġproject": 3784,
      "ateg": 3785,
      "Des": 3786,
      "quest": 3787,
      "Ġplatform": 3788,
      "pull": 3789,
      "Ġmade": 3790,
      "ynam": 3791,
      "ear": 3792,
      "war": 3793,
      "ĠEnd": 3794,
      "GENER": 3795,
      "compile": 3796,
      "Ġlonger": 3797,
      "Ġimplemented": 3798,
      "IGNUM": 3799,
      "moun": 3800,
      "Click": 3801,
      "Ġoccurs": 3802,
      "kens": 3803,
      "Multi": 3804,
      "Menu": 3805,
      "ution": 3806,
      "Ġequivalent": 3807,
      "ili": 3808,
      "Ġden": 3809,
      "request": 3810,
      "scape": 3811,
      "integ": 3812,
      "ĠCAP": 3813,
      "iph": 3814,
      "ember": 3815,
      "ragment": 3816,
      "ending": 3817,
      "Structure": 3818,
      "Ġsyntax": 3819,
      "pth": 3820,
      "Ġ\",\"": 3821,
      "Digest": 3822,
      "reset": 3823,
      "apter": 3824,
      "pository": 3825,
      "FileCopyright": 3826,
      "FileCopyrightText": 3827,
      "100": 3828,
      "ĠURL": 3829,
      "prefix": 3830,
      "CLU": 3831,
      "zmf": 3832,
      "512": 3833,
      "Ġmount": 3834,
      "Ġ|</": 3835,
      "If": 3836,
      "Ġbeg": 3837,
      "stroy": 3838,
      "FIN": 3839,
      "enable": 3840,
      "ĠCRYP": 3841,
      "ĠHow": 3842,
      "ĠAUT": 3843,
      "pref": 3844,
      "Ġet": 3845,
      "HE": 3846,
      "ĠCRYPTO": 3847,
      "%\">": 3848,
      "Options": 3849,
      "Ġsd": 3850,
      "push": 3851,
      "\";": 3852,
      "part": 3853,
      "proxy": 3854,
      "gavl": 3855,
      "mpt": 3856,
      "bus": 3857,
      "PACK": 3858,
      "LOAD": 3859,
      "Ġqual": 3860,
      "On": 3861,
      "cat": 3862,
      "buffer": 3863,
      "Ġelements": 3864,
      ">)": 3865,
      "]:": 3866,
      "Ġtre": 3867,
      "EXTENSION": 3868,
      "Trans": 3869,
      "ĠTrans": 3870,
      "uri": 3871,
      "Ġfin": 3872,
      "ĠSMALL": 3873,
      "Ġdevices": 3874,
      "dat": 3875,
      "Ġsystems": 3876,
      "Ġchild": 3877,
      "GLM": 3878,
      "Ġcontin": 3879,
      "Ġremove": 3880,
      "Shape": 3881,
      "Ġunless": 3882,
      "Ġcr": 3883,
      "Ġmak": 3884,
      "}:": 3885,
      "Ġplugins": 3886,
      "Ġaudio": 3887,
      "',['": 3888,
      "ĠNo": 3889,
      "support": 3890,
      "Ġnegative": 3891,
      "eration": 3892,
      "Ġbuilt": 3893,
      "ContentCollector": 3894,
      ">>": 3895,
      "Ġ20": 3896,
      "Hand": 3897,
      "Ġowned": 3898,
      "SSION": 3899,
      "(){": 3900,
      "Ġisinstance": 3901,
      "Ġcomb": 3902,
      "ĠAt": 3903,
      "signal": 3904,
      "Ġitself": 3905,
      "ĠOP": 3906,
      "Ġgo": 3907,
      "Ġ15": 3908,
      "Ġglobal": 3909,
      "VS": 3910,
      "Ġsend": 3911,
      "ROLE": 3912,
      "007": 3913,
      "DIG": 3914,
      "/\">": 3915,
      "Ġsent": 3916,
      "trodu": 3917,
      "USE": 3918,
      "autocomplete": 3919,
      "Ġchanged": 3920,
      "IX": 3921,
      "fzy": 3922,
      "Ġdevhelp": 3923,
      "Ġnumbers": 3924,
      "Ġsig": 3925,
      "specific": 3926,
      "kittens": 3927,
      "Variable": 3928,
      "Ġtabindex": 3929,
      "lim": 3930,
      "Ġappe": 3931,
      "Ġdisable": 3932,
      "Ġremoved": 3933,
      "},{\"": 3934,
      "password": 3935,
      "Alloc": 3936,
      "Ġrespectively": 3937,
      ".)": 3938,
      "ql": 3939,
      "wer": 3940,
      "ĠTitle": 3941,
      "emo": 3942,
      "Ġgr": 3943,
      "Manager": 3944,
      "parent": 3945,
      "ances": 3946,
      "AUTHORITY": 3947,
      "urpo": 3948,
      "})": 3949,
      "Ġequal": 3950,
      "Ġsm": 3951,
      "Ġpcre": 3952,
      "ĠAR": 3953,
      "byte": 3954,
      "ty": 3955,
      "later": 3956,
      "pread": 3957,
      "Ġuntil": 3958,
      "Ġremote": 3959,
      "Ġhighlight": 3960,
      "Ġdest": 3961,
      "Present": 3962,
      "Ġlay": 3963,
      "send": 3964,
      "Ġrele": 3965,
      "Ġdefinition": 3966,
      "Ġlocale": 3967,
      "Ġacc": 3968,
      "ĠFunctions": 3969,
      "uture": 3970,
      "Ġincluding": 3971,
      "Ġtake": 3972,
      "curity": 3973,
      "hes": 3974,
      "(<": 3975,
      "mitted": 3976,
      "oke": 3977,
      ";&": 3978,
      "ĠBegin": 3979,
      "yu": 3980,
      "arguments": 3981,
      "emaker": 3982,
      "Ġexpected": 3983,
      "Ġvari": 3984,
      "Ġconstruct": 3985,
      "Ġmargin": 3986,
      "urther": 3987,
      "UM": 3988,
      "container": 3989,
      "cape": 3990,
      "State": 3991,
      "added": 3992,
      "charset": 3993,
      "ĠWP": 3994,
      "Ġpolicy": 3995,
      "Ġfoo": 3996,
      "flo": 3997,
      "URCE": 3998,
      "Source": 3999,
      "tdoc": 4000,
      "ĠStandard": 4001,
      "ĠXML": 4002,
      "Variant": 4003,
      "Ġpartic": 4004,
      "Ġavoid": 4005,
      "ĠCW": 4006,
      "Ġcomplete": 4007,
      "]\"": 4008,
      "Ġperl": 4009,
      "Ġformats": 4010,
      "ITAL": 4011,
      "Ġpoints": 4012,
      "ĠVe": 4013,
      "-\\": 4014,
      "HASH": 4015,
      "Ġdescriptor": 4016,
      "ĠLIC": 4017,
      "pagemaker": 4018,
      "session": 4019,
      "ĠSh": 4020,
      "Ġdirectories": 4021,
      "Ġappropri": 4022,
      "ttdoc": 4023,
      "deta": 4024,
      "Block": 4025,
      "Lo": 4026,
      "](": 4027,
      "namespacelibmspub": 4028,
      "bp": 4029,
      "ĠCommand": 4030,
      "Ġchain": 4031,
      "HO": 4032,
      "PUT": 4033,
      "lear": 4034,
      "uper": 4035,
      "Ġless": 4036,
      "Ġsymb": 4037,
      "stroke": 4038,
      "ĠBIGNUM": 4039,
      "AINT": 4040,
      "Ġ&&": 4041,
      "IAL": 4042,
      "extract": 4043,
      "COPYRIGHT": 4044,
      "ĠVertical": 4045,
      "gnu": 4046,
      "ud": 4047,
      "Ġke": 4048,
      "ĠRFC": 4049,
      "ContentListener": 4050,
      "Ġlanguage": 4051,
      "Ġevery": 4052,
      "rsa": 4053,
      "addr": 4054,
      "HEAD": 4055,
      "Ġupd": 4056,
      "digest": 4057,
      "ĠâĢ": 4058,
      "Be": 4059,
      "NOT": 4060,
      "ĠDoxygen": 4061,
      "ters": 4062,
      "IFY": 4063,
      "Presentation": 4064,
      "tion": 4065,
      "ETF": 4066,
      "ĠPUBLIC": 4067,
      "Mode": 4068,
      "custom": 4069,
      "Ġclosed": 4070,
      "GObject": 4071,
      "ĠLICENSE": 4072,
      "mask": 4073,
      "na": 4074,
      "ĠAp": 4075,
      "LOOK": 4076,
      "chine": 4077,
      "rq": 4078,
      "ĠDeclaration": 4079,
      "192": 4080,
      "Raw": 4081,
      "Ġsupplied": 4082,
      "CMake": 4083,
      "Stat": 4084,
      "CONSTR": 4085,
      "Ġold": 4086,
      "[^": 4087,
      "Ġconstant": 4088,
      "Index": 4089,
      "ffix": 4090,
      "exec": 4091,
      "like": 4092,
      "alcul": 4093,
      "ATURE": 4094,
      "ĠSEE": 4095,
      "\">-": 4096,
      "izes": 4097,
      "trace": 4098,
      "Ġsys": 4099,
      "alle": 4100,
      "ALG": 4101,
      "vailable": 4102,
      "Ġreason": 4103,
      "Ġpy": 4104,
      "LOOKUP": 4105,
      "unch": 4106,
      "itive": 4107,
      "Ġcases": 4108,
      "\\{\\": 4109,
      "caps": 4110,
      "Ġcompiler": 4111,
      "umn": 4112,
      "rF": 4113,
      "Ġbackground": 4114,
      "coun": 4115,
      "0005": 4116,
      "Ġassume": 4117,
      "($": 4118,
      "element": 4119,
      "Ġcell": 4120,
      "delete": 4121,
      "ĠUnicode": 4122,
      "NET": 4123,
      "iller": 4124,
      "served": 4125,
      "ru": 4126,
      "gener": 4127,
      "Ġrepresentation": 4128,
      "Not": 4129,
      "Ġsubject": 4130,
      "chron": 4131,
      "Ġentire": 4132,
      "ĠVb": 4133,
      "((.": 4134,
      "rawing": 4135,
      "ĠCAPITAL": 4136,
      "Ġinvalid": 4137,
      "ĠInc": 4138,
      "FACE": 4139,
      "pd": 4140,
      "Ġopenssl": 4141,
      "Ġauthent": 4142,
      "preadsheet": 4143,
      "-+": 4144,
      "Ġ64": 4145,
      "ĠDate": 4146,
      "_&": 4147,
      "Ġio": 4148,
      "socket": 4149,
      "Ġ11": 4150,
      "SIZE": 4151,
      "USER": 4152,
      ":\\\\$": 4153,
      "ys": 4154,
      "boolean": 4155,
      "RVNGInputStream": 4156,
      "\\%\"\\\\$": 4157,
      ":((.": 4158,
      "SU": 4159,
      "See": 4160,
      "wargs": 4161,
      "properties": 4162,
      "ĠAUTHOR": 4163,
      "Ġnecess": 4164,
      "Ġparticular": 4165,
      "No": 4166,
      "Ġ\"-//": 4167,
      "Ġservice": 4168,
      "Page": 4169,
      "rec": 4170,
      "True": 4171,
      "Ġargs": 4172,
      "DIGEST": 4173,
      "ĠAND": 4174,
      "DATA": 4175,
      "Ġtimes": 4176,
      "AG": 4177,
      "Ġobj": 4178,
      "VERIFY": 4179,
      "Ġsudo": 4180,
      "Ġtests": 4181,
      "Ġlock": 4182,
      "ĠSu": 4183,
      "Ġaffect": 4184,
      "Ġencrypt": 4185,
      "Date": 4186,
      "ĠDi": 4187,
      "cmp": 4188,
      "FAULT": 4189,
      "Ġmean": 4190,
      "ĠLIB": 4191,
      "Ġali": 4192,
      "():": 4193,
      "mountable": 4194,
      "iso": 4195,
      "Check": 4196,
      "sol": 4197,
      "WPX": 4198,
      "Ġattr": 4199,
      "hide": 4200,
      "Ġwra": 4201,
      "previous": 4202,
      "kt": 4203,
      "ret": 4204,
      "Ġkitt": 4205,
      "ENGINE": 4206,
      "Ġetc": 4207,
      "Ġupdate": 4208,
      "Ġprovider": 4209,
      "Ġrelease": 4210,
      "Ġissu": 4211,
      "Ġsche": 4212,
      ".\"\"\"": 4213,
      "active": 4214,
      "Ġoccurred": 4215,
      "ilities": 4216,
      "now": 4217,
      "CONSTRAINT": 4218,
      "lq": 4219,
      "Ġresol": 4220,
      "Dec": 4221,
      "ĠDO": 4222,
      "angle": 4223,
      "Create": 4224,
      "Ġ!=": 4225,
      "Ġallowed": 4226,
      "faces": 4227,
      "losure": 4228,
      "Ġaccepts": 4229,
      "ĠOtherwise": 4230,
      "Range": 4231,
      "ĠReference": 4232,
      "Ġproperties": 4233,
      "usted": 4234,
      "ential": 4235,
      "Ġshared": 4236,
      "ategory": 4237,
      "125": 4238,
      "Ġrather": 4239,
      "UI": 4240,
      "CONSTRAINTS": 4241,
      "MAIN": 4242,
      "Ġonce": 4243,
      "ressed": 4244,
      "Ġleast": 4245,
      "look": 4246,
      "Ġfix": 4247,
      "indent": 4248,
      "mission": 4249,
      "structlibmspub": 4250,
      "hpp": 4251,
      "ĠHISTORY": 4252,
      "024": 4253,
      "Ġimplementations": 4254,
      "dead": 4255,
      "Ġmis": 4256,
      "ĠAs": 4257,
      "lying": 4258,
      "ĠGio": 4259,
      "ade": 4260,
      "ian": 4261,
      "tmp": 4262,
      "Format": 4263,
      "ency": 4264,
      "ĠHowever": 4265,
      "zma": 4266,
      "ends": 4267,
      "area": 4268,
      "iers": 4269,
      "rop": 4270,
      "normal": 4271,
      "Ġrecord": 4272,
      "Ġgn": 4273,
      "Ġappear": 4274,
      "Ġappropriate": 4275,
      ")?": 4276,
      "Ġregular": 4277,
      "afd": 4278,
      "strict": 4279,
      "2026": 4280,
      "elem": 4281,
      "Ġprocedure": 4282,
      "Ġextra": 4283,
      "Ġdon": 4284,
      "CLUDE": 4285,
      "Ġindicates": 4286,
      "xx": 4287,
      "Ġremain": 4288,
      "Ġmap": 4289,
      "Ġtrace": 4290,
      "Ġtoken": 4291,
      "ILD": 4292,
      "Domain": 4293,
      "Traits": 4294,
      "Ã¶r": 4295,
      "vers": 4296,
      "MSPUB": 4297,
      "ique": 4298,
      "pkey": 4299,
      "AMPL": 4300,
      "cfb": 4301,
      "ART": 4302,
      "INST": 4303,
      "navtab": 4304,
      "fill": 4305,
      "NOTI": 4306,
      "ĠSIG": 4307,
      "alias": 4308,
      "ĠList": 4309,
      "Ġcustom": 4310,
      "Ġret": 4311,
      "Config": 4312,
      "Ġmodify": 4313,
      "Ġstatic": 4314,
      "ertificates": 4315,
      "Rec": 4316,
      "KS": 4317,
      "pbm": 4318,
      "Ġqueue": 4319,
      "Ã¤r": 4320,
      "Ġmon": 4321,
      "bolic": 4322,
      "\"]": 4323,
      "Ġcompatibility": 4324,
      "Public": 4325,
      "sor": 4326,
      "Ġhard": 4327,
      "Ġ\"$": 4328,
      "variables": 4329,
      "Ġcommon": 4330,
      "AMPLES": 4331,
      "ĠSpecifies": 4332,
      "BLOCK": 4333,
      "multi": 4334,
      "Ġinvok": 4335,
      ">_": 4336,
      "import": 4337,
      "rection": 4338,
      "essage": 4339,
      "Ġdist": 4340,
      "SV": 4341,
      "ĠFix": 4342,
      "Ġsimp": 4343,
      "Ġexplicitly": 4344,
      "xmlsec": 4345,
      "tcd": 4346,
      "Temp": 4347,
      "fr": 4348,
      "Ġaltern": 4349,
      "UID": 4350,
      "here": 4351,
      "UTE": 4352,
      "ĠType": 4353,
      "Encrypt": 4354,
      "LEN": 4355,
      "Ġreco": 4356,
      "fetch": 4357,
      "ceed": 4358,
      "ĠESS": 4359,
      "download": 4360,
      "Ġpi": 4361,
      "909": 4362,
      "ĠProject": 4363,
      "valu": 4364,
      "Ġparse": 4365,
      "Ġpub": 4366,
      "EventListener": 4367,
      "Ġcompli": 4368,
      "AEAD": 4369,
      "ird": 4370,
      "Ġassert": 4371,
      "pattern": 4372,
      "octet": 4373,
      "Ġfurther": 4374,
      "timeout": 4375,
      "/*": 4376,
      "Ġbreak": 4377,
      "Flags": 4378,
      "ĠNot": 4379,
      "php": 4380,
      "Ġbin": 4381,
      "OutputElement": 4382,
      "Ġlater": 4383,
      "ĠTeam": 4384,
      "Ġcurl": 4385,
      "Ã¼": 4386,
      "CPACK": 4387,
      "ĠDevelopment": 4388,
      "ĠTransitional": 4389,
      "application": 4390,
      "ParserContext": 4391,
      "854": 4392,
      "ings": 4393,
      "iphers": 4394,
      "lies": 4395,
      "stack": 4396,
      "ĠSome": 4397,
      "ĠDE": 4398,
      "family": 4399,
      "Ġtimeout": 4400,
      "RA": 4401,
      "));": 4402,
      "ights": 4403,
      "MODE": 4404,
      "Ġvolume": 4405,
      "ĠComp": 4406,
      "AUTO": 4407,
      "\"],[": 4408,
      "BASI": 4409,
      "Ġ//": 4410,
      "Ġsimple": 4411,
      "ĠĠĠĠĠĠĠĠĠĠĠĠĠĠ": 4412,
      "gra": 4413,
      "issues": 4414,
      "Ġbr": 4415,
      "Ġwhite": 4416,
      "Ġindicate": 4417,
      "Ġincluded": 4418,
      "allel": 4419,
      "255": 4420,
      "shot": 4421,
      "Ġloop": 4422,
      "Ġfloating": 4423,
      "ĠTO": 4424,
      "Ġdoxygen": 4425,
      "TOC": 4426,
      "Ġxz": 4427,
      "Ġdesc": 4428,
      ":\"": 4429,
      "erved": 4430,
      "Ġconversion": 4431,
      "VALID": 4432,
      "pam": 4433,
      "aged": 4434,
      "Ġbegin": 4435,
      "108": 4436,
      "ged": 4437,
      "assert": 4438,
      "Ġfollowed": 4439,
      "ĠApache": 4440,
      "ross": 4441,
      "ĠMiB": 4442,
      "CAL": 4443,
      "ĠRE": 4444,
      "Ġ(\"": 4445,
      "Ġ24": 4446,
      "Ġsettings": 4447,
      "Ġencryption": 4448,
      "IETF": 4449,
      "ormally": 4450,
      "Or": 4451,
      "=\"_": 4452,
      "navigation": 4453,
      "********": 4454,
      "8859": 4455,
      "169": 4456,
      "Ġactual": 4457,
      "Ġborder": 4458,
      "DOW": 4459,
      "ITEM": 4460,
      "000000": 4461,
      "simple": 4462,
      "Ġconsist": 4463,
      "Ġcomponents": 4464,
      "Ġprocessing": 4465,
      "rive": 4466,
      "Read": 4467,
      "HEADER": 4468,
      "nv": 4469,
      "urlmap": 4470,
      "SOURCE": 4471,
      "formed": 4472,
      "ially": 4473,
      "ĠEach": 4474,
      "ĠPo": 4475,
      "structdvb": 4476,
      "known": 4477,
      "NS": 4478,
      "aes": 4479,
      "SERIAL": 4480,
      "Ġinsert": 4481,
      "00922": 4482,
      "Ġexact": 4483,
      "docs": 4484,
      "PEG": 4485,
      "False": 4486,
      "ĠDES": 4487,
      "Paragraph": 4488,
      "proc": 4489,
      "Ġroutines": 4490,
      "OPTIONS": 4491,
      "ko": 4492,
      "doption": 4493,
      "Ġsoftware": 4494,
      "MIN": 4495,
      "123": 4496,
      "BR": 4497,
      "sequ": 4498,
      "oly": 4499,
      "Ġdependen": 4500,
      "Ġ+=": 4501,
      ";_": 4502,
      "STATUS": 4503,
      "diff": 4504,
      "Ġseconds": 4505,
      "136": 4506,
      "modified": 4507,
      "Ġframes": 4508,
      "commit": 4509,
      "Ġclose": 4510,
      "ENCRYPTED": 4511,
      "Test": 4512,
      "UST": 4513,
      "ĠWh": 4514,
      "Parameters": 4515,
      "RVNGText": 4516,
      "gress": 4517,
      "Ġcertificates": 4518,
      "Ġdisabled": 4519,
      "DOMAIN": 4520,
      "Ġcurses": 4521,
      "VICE": 4522,
      "verse": 4523,
      "macro": 4524,
      "ordin": 4525,
      "ĠGLM": 4526,
      "serial": 4527,
      "Ext": 4528,
      "LIBMTP": 4529,
      "cies": 4530,
      "iterator": 4531,
      "Ġgre": 4532,
      "stop": 4533,
      "Ġheading": 4534,
      "WOR": 4535,
      "PMD": 4536,
      "show": 4537,
      "Ġneeds": 4538,
      "Ġ);": 4539,
      "sr": 4540,
      "Ġfunctional": 4541,
      "eta": 4542,
      "nid": 4543,
      "017": 4544,
      "Ġnever": 4545,
      "Ġfeatures": 4546,
      "cmdoption": 4547,
      "MENTS": 4548,
      "ĠGroup": 4549,
      "SON": 4550,
      "Ġgnutls": 4551,
      "metadata": 4552,
      "--------------------------------": 4553,
      "az": 4554,
      "ctest": 4555,
      "Ġkitty": 4556,
      "lookup": 4557,
      ";\"><": 4558,
      "ATOR": 4559,
      "PARAMS": 4560,
      "genindex": 4561,
      "Ġrequires": 4562,
      "abc": 4563,
      "Ġcompliance": 4564,
      "eric": 4565,
      "fficient": 4566,
      "Ġlabel": 4567,
      "ja": 4568,
      "stru": 4569,
      "plugins": 4570,
      "Fill": 4571,
      "Ut": 4572,
      "Ġ\"--": 4573,
      "bP": 4574,
      "refresh": 4575,
      "Ġhandler": 4576,
      "compress": 4577,
      "Returns": 4578,
      "ÈĽi": 4579,
      "Ġdetermine": 4580,
      "optional": 4581,
      "tection": 4582,
      "Available": 4583,
      "ĠCO": 4584,
      "Ġtransp": 4585,
      "ung": 4586,
      "allow": 4587,
      "opensearch": 4588,
      "case": 4589,
      "mouse": 4590,
      "namespacelibebook": 4591,
      "Ġplay": 4592,
      "Ã³": 4593,
      "Can": 4594,
      "Size": 4595,
      "ev": 4596,
      "ĠReserved": 4597,
      "ĠaddEventListener": 4598,
      "Ġlibrevenge": 4599,
      "adc": 4600,
      "UE": 4601,
      "Ġcrypt": 4602,
      "dered": 4603,
      "Ġrelative": 4604,
      "PACKAGE": 4605,
      "Ġfl": 4606,
      "Ġprograms": 4607,
      "loader": 4608,
      "zip": 4609,
      "erred": 4610,
      "ĠKEY": 4611,
      "bs": 4612,
      "ALGOR": 4613,
      "IME": 4614,
      "ĠAuthors": 4615,
      "019": 4616,
      "ten": 4617,
      "acity": 4618,
      "Ġmask": 4619,
      "dyn": 4620,
      "ada": 4621,
      "Ġconf": 4622,
      "Ġsuitable": 4623,
      "Ġaddition": 4624,
      "ĠSV": 4625,
      "Ġrequested": 4626,
      "Ġpurpo": 4627,
      "BUILD": 4628,
      "aintext": 4629,
      "...</": 4630,
      "PORT": 4631,
      "pha": 4632,
      "Ġfixed": 4633,
      "Ġgraph": 4634,
      "Ġwait": 4635,
      "Ġusers": 4636,
      "|\\(^": 4637,
      "ncurses": 4638,
      "Ġcompression": 4639,
      "384": 4640,
      "separator": 4641,
      "pr": 4642,
      "libqxp": 4643,
      "Ġinstalled": 4644,
      "Ġexport": 4645,
      "Ġunit": 4646,
      "ĠLicensed": 4647,
      "ĠRights": 4648,
      "scriptors": 4649,
      "wait": 4650,
      "Ġ14": 4651,
      "ank": 4652,
      "Ġword": 4653,
      "opsis": 4654,
      "Ġdoesn": 4655,
      "Ġpacket": 4656,
      "Drawing": 4657,
      "gio": 4658,
      "Ġ><": 4659,
      "Ġsym": 4660,
      "tro": 4661,
      "ĠNID": 4662,
      "cope": 4663,
      "pid": 4664,
      "propList": 4665,
      "Ġpaths": 4666,
      "104": 4667,
      "AMETER": 4668,
      "Ġknown": 4669,
      "flag": 4670,
      "ished": 4671,
      "('',": 4672,
      "Ġheaders": 4673,
      "curl": 4674,
      "tbody": 4675,
      "Ġlibraries": 4676,
      "solute": 4677,
      "okie": 4678,
      "expr": 4679,
      "bose": 4680,
      "alid": 4681,
      "Ġmsg": 4682,
      "struction": 4683,
      "Ġsort": 4684,
      "Ġmacros": 4685,
      "rule": 4686,
      "Ġinitialized": 4687,
      "Spreadsheet": 4688,
      "Ġraw": 4689,
      "au": 4690,
      "lzma": 4691,
      "];": 4692,
      ":`": 4693,
      "END": 4694,
      "_<": 4695,
      "Ġremap": 4696,
      "sole": 4697,
      "keys": 4698,
      "INTERFACE": 4699,
      "Ġstarting": 4700,
      "Ġspan": 4701,
      "Ġview": 4702,
      "ĠSystem": 4703,
      "internal": 4704,
      "disable": 4705,
      "\":[[": 4706,
      "orig": 4707,
      "())": 4708,
      "Ġnecessary": 4709,
      "ĠÃ®": 4710,
      "uge": 4711,
      "=<": 4712,
      "Packet": 4713,
      "Ġinterpreter": 4714,
      "ĠOR": 4715,
      "Ġdescrib": 4716,
      "Ġ{'": 4717,
      "BM": 4718,
      "atal": 4719,
      "388": 4720,
      "Ġfill": 4721,
      "gab": 4722,
      "model": 4723,
      "DEFAULT": 4724,
      "Properties": 4725,
      "aff": 4726,
      "kbd": 4727,
      "Ġjob": 4728,
      "encrypt": 4729,
      "ARCH": 4730,
      "functions": 4731,
      "vector": 4732,
      "clean": 4733,
      "Ġsem": 4734,
      "express": 4735,
      "===": 4736,
      "Ġparams": 4737,
      "aver": 4738,
      "Examples": 4739,
      "-+-+": 4740,
      "Ġconfigured": 4741,
      "Ġexists": 4742,
      "Settings": 4743,
      "ĠProgram": 4744,
      "anges": 4745,
      "ĠBU": 4746,
      "encoding": 4747,
      "Async": 4748,
      "Spec": 4749,
      "....": 4750,
      "Ġimmedi": 4751,
      "after": 4752,
      "ĠinitMenu": 4753,
      "menudata": 4754,
      "ĠĠĠĠĠĠĠĠĠĠĠĠĠĠĠĠĠĠĠĠĠĠĠĠĠ": 4755,
      "Ġclear": 4756,
      "work": 4757,
      "ised": 4758,
      "ĠWith": 4759,
      "ĠInst": 4760,
      "tu": 4761,
      "Ġterminated": 4762,
      "LP": 4763,
      "ĠFILE": 4764,
      "tal": 4765,
      "tokens": 4766,
      "caca": 4767,
      "Ġcore": 4768,
      "Ġfailed": 4769,
      "ĠValue": 4770,
      "Ġmlx": 4771,
      "Ġextensions": 4772,
      "ĠPublic": 4773,
      "Ġmembers": 4774,
      "Tp": 4775,
      "heading": 4776,
      "Ġexception": 4777,
      "Ġidentifier": 4778,
      "Ġfi": 4779,
      "component": 4780,
      "orrect": 4781,
      "related": 4782,
      "external": 4783,
      "cbc": 4784,
      "login": 4785,
      "Ġdefaults": 4786,
      "Th": 4787,
      "Ġcl": 4788,
      "operator": 4789,
      "Ġvarious": 4790,
      "ĠNOTES": 4791,
      "Ġfuture": 4792,
      "moz": 4793,
      "Ġmod": 4794,
      "Ġnothing": 4795,
      "Ġactive": 4796,
      "ĠCPU": 4797,
      "GM": 4798,
      "alar": 4799,
      "SOL": 4800,
      "RVNGRaw": 4801,
      "refore": 4802,
      "Ġcontinue": 4803,
      "ynamic": 4804,
      "IZ": 4805,
      "aris": 4806,
      "Map": 4807,
      "Ġtool": 4808,
      "chan": 4809,
      "TRY": 4810,
      "Ġmodified": 4811,
      "afc": 4812,
      "groups": 4813,
      "queue": 4814,
      "IOD": 4815,
      "([": 4816,
      "EEE": 4817,
      "Ġtree": 4818,
      "mult": 4819,
      "Ġer": 4820,
      "totype": 4821,
      "AppStream": 4822,
      "PERIOD": 4823,
      "ĠString": 4824,
      "python": 4825,
      "Ġaut": 4826,
      "rate": 4827,
      "untime": 4828,
      "____": 4829,
      "freedesktop": 4830,
      "Ġmapping": 4831,
      "FileInfo": 4832,
      "Ġworks": 4833,
      "Ġ```": 4834,
      "override": 4835,
      "radi": 4836,
      "Ġ{}": 4837,
      "Ġfloat": 4838,
      "Ġlet": 4839,
      "abb": 4840,
      "pair": 4841,
      "libcdr": 4842,
      "roff": 4843,
      "STEM": 4844,
      "entr": 4845,
      "aving": 4846,
      "cel": 4847,
      "Ġscan": 4848,
      "General": 4849,
      "NOTICE": 4850,
      "ummy": 4851,
      "defold": 4852,
      "Ġcodefold": 4853,
      "EP": 4854,
      "mail": 4855,
      "shal": 4856,
      "Ġimages": 4857,
      "long": 4858,
      "GB": 4859,
      "ocation": 4860,
      "float": 4861,
      "Array": 4862,
      "Ġrules": 4863,
      "Ġstorage": 4864,
      "RED": 4865,
      "own": 4866,
      "HISTORY": 4867,
      "Ġfails": 4868,
      "ANDARD": 4869,
      "\\|.": 4870,
      "dbus": 4871,
      "req": 4872,
      "printf": 4873,
      "LIBRARY": 4874,
      "spaces": 4875,
      "REF": 4876,
      "Ġgets": 4877,
      "Ġwriting": 4878,
      "PresentationGenerator": 4879,
      "Ġda": 4880,
      "LOADER": 4881,
      "hip": 4882,
      "troduced": 4883,
      "des": 4884,
      "Ġchecks": 4885,
      "Ġnote": 4886,
      "\">#</": 4887,
      "Ġhigh": 4888,
      "ĠOS": 4889,
      "Ġreading": 4890,
      "library": 4891,
      "Ġusually": 4892,
      "Ġensure": 4893,
      "Ġsever": 4894,
      "Ġbehaviour": 4895,
      "Ġrow": 4896,
      "DS": 4897,
      "buil": 4898,
      "resol": 4899,
      "Ġpointers": 4900,
      "ĠHTTP": 4901,
      "'],": 4902,
      "VariableLengthGroup": 4903,
      "GU": 4904,
      "Message": 4905,
      "resses": 4906,
      "ĠInterface": 4907,
      "ora": 4908,
      "pecmd": 4909,
      "MISS": 4910,
      "Ġsmall": 4911,
      "Ġhistory": 4912,
      "istr": 4913,
      ";)</": 4914,
      "EBOOKHTML": 4915,
      "sect": 4916,
      "adow": 4917,
      "warning": 4918,
      "sequent": 4919,
      "obile": 4920,
      "ĠFixed": 4921,
      "required": 4922,
      "malloc": 4923,
      "weight": 4924,
      "feature": 4925,
      "non": 4926,
      "Ġcmd": 4927,
      "Ġfr": 4928,
      "navelem": 4929,
      "APE": 4930,
      "ording": 4931,
      "Ġtypically": 4932,
      "CERTI": 4933,
      "Ġhandling": 4934,
      "Ġsl": 4935,
      "global": 4936,
      "ertain": 4937,
      "Ġcreates": 4938,
      "Ġignore": 4939,
      "Ġtoo": 4940,
      "ĠBe": 4941,
      "truct": 4942,
      "Ġfinal": 4943,
      "Âł": 4944,
      "aliases": 4945,
      "Ġreplace": 4946,
      "PARAMETER": 4947,
      "Ġmulti": 4948,
      "KED": 4949,
      "Ġnewly": 4950,
      "Ã£": 4951,
      "Ser": 4952,
      "Ġhapp": 4953,
      "fact": 4954,
      "BI": 4955,
      ">(<": 4956,
      "Ġamount": 4957,
      "compat": 4958,
      "based": 4959,
      "Ã£o": 4960,
      "ĠCON": 4961,
      "decls": 4962,
      "Ġdefine": 4963,
      "returns": 4964,
      "Character": 4965,
      "XY": 4966,
      "spar": 4967,
      "getElement": 4968,
      "iler": 4969,
      "LIST": 4970,
      "ĠVALUE": 4971,
      "integer": 4972,
      "Ġindent": 4973,
      "Ġreset": 4974,
      "mi": 4975,
      "ometry": 4976,
      "duration": 4977,
      "Ġlat": 4978,
      "priv": 4979,
      "Ġund": 4980,
      "SH": 4981,
      "Hash": 4982,
      "Tls": 4983,
      "Ã¡": 4984,
      "').": 4985,
      "////////": 4986,
      "marshal": 4987,
      "export": 4988,
      "Ġalgorithms": 4989,
      "Attribute": 4990,
      "spacing": 4991,
      "classlibcdr": 4992,
      "Ġprocessed": 4993,
      "ints": 4994,
      "ĠError": 4995,
      "Ġsecurity": 4996,
      "Ġdisk": 4997,
      "EVENT": 4998,
      "Ġreceived": 4999,
      ">]": 5000,
      "Ġenum": 5001,
      "Ġrecomm": 5002,
      "Reg": 5003,
      "lid": 5004,
      "imobile": 5005,
      "oice": 5006,
      "umbn": 5007,
      "imobiledevice": 5008,
      "kdf": 5009,
      "INCLUDE": 5010,
      "kind": 5011,
      "0007": 5012,
      "full": 5013,
      "ĠThey": 5014,
      "Ġ199": 5015,
      "position": 5016,
      "Imp": 5017,
      "ivation": 5018,
      "token": 5019,
      "Optional": 5020,
      "-\\(^": 5021,
      "which": 5022,
      "track": 5023,
      "Ġmakes": 5024,
      "memberdecls": 5025,
      "Ġthreads": 5026,
      "114": 5027,
      "locale": 5028,
      "TAB": 5029,
      "cellable": 5030,
      "837": 5031,
      "errors": 5032,
      "Ġ\\\\\\$": 5033,
      "ilter": 5034,
      "range": 5035,
      "Ġ!\"\\\\$": 5036,
      "Ġsuper": 5037,
      "MON": 5038,
      "Ġear": 5039,
      "ĠManual": 5040,
      "Mount": 5041,
      "DING": 5042,
      "gu": 5043,
      "Ġdisc": 5044,
      "Ġld": 5045,
      "SAGE": 5046,
      "Ġlinks": 5047,
      "mits": 5048,
      "Ġreal": 5049,
      "Number": 5050,
      "Ġimmediately": 5051,
      "Action": 5052,
      "0008": 5053,
      "Ġquot": 5054,
      "}}": 5055,
      "Ġcursor": 5056,
      "Ġtransl": 5057,
      "erate": 5058,
      "Ġ[--": 5059,
      "timestamp": 5060,
      "panel": 5061,
      "105": 5062,
      "using": 5063,
      "Ġverify": 5064,
      "BUG": 5065,
      "Ġrepl": 5066,
      "items": 5067,
      "Ġ*/</": 5068,
      "Ġ17": 5069,
      "ĠNUL": 5070,
      "shared": 5071,
      "unct": 5072,
      "LOG": 5073,
      "SK": 5074,
      "0006": 5075,
      "audio": 5076,
      "Ġlower": 5077,
      "199": 5078,
      "Ġmodules": 5079,
      "Decrypt": 5080,
      "MISSION": 5081,
      "Part": 5082,
      ">:": 5083,
      "COMPILE": 5084,
      "Ġprompt": 5085,
      "Ġauthentication": 5086,
      "Ġhighlighter": 5087,
      "^^": 5088,
      "LINE": 5089,
      "Ġprintf": 5090,
      ">()": 5091,
      "Ġ''": 5092,
      "decode": 5093,
      "Ġlinkend": 5094,
      "ole": 5095,
      "ving": 5096,
      "Ġtransform": 5097,
      "Default": 5098,
      "Ġvec": 5099,
      "rid": 5100,
      "Make": 5101,
      "ONE": 5102,
      "TEST": 5103,
      "WR": 5104,
      "encode": 5105,
      "arent": 5106,
      "Ġinside": 5107,
      "ĠSpecify": 5108,
      "chain": 5109,
      "Ġput": 5110,
      "Ġpreviously": 5111,
      "primary": 5112,
      "Go": 5113,
      "ives": 5114,
      "clus": 5115,
      "systemd": 5116,
      "Ġweb": 5117,
      "Ġterms": 5118,
      "ARN": 5119,
      "101": 5120,
      "Ġchapter": 5121,
      "ek": 5122,
      "chanis": 5123,
      "ĠIPv": 5124,
      "CIPH": 5125,
      ">#": 5126,
      "SCAPE": 5127,
      "Ġtuple": 5128,
      "Ġseveral": 5129,
      "Pl": 5130,
      ");\"": 5131,
      "just": 5132,
      "Ġlead": 5133,
      "agno": 5134,
      "COMPIL": 5135,
      "CHEC": 5136,
      "Ġph": 5137,
      "Ġdecl": 5138,
      "libfreehand": 5139,
      "Ġatt": 5140,
      "MPL": 5141,
      "destroy": 5142,
      "109": 5143,
      "plaintext": 5144,
      "chronous": 5145,
      "Ġib": 5146,
      "}.": 5147,
      "ership": 5148,
      "Transform": 5149,
      "Pre": 5150,
      "Ġcertain": 5151,
      "107": 5152,
      "scroll": 5153,
      "INSTALL": 5154,
      "=</": 5155,
      "Ġpam": 5156,
      "short": 5157,
      "ration": 5158,
      "From": 5159,
      "Ġnotice": 5160,
      "Ġ100": 5161,
      "Ġrandom": 5162,
      "ĠCMP": 5163,
      "attributes": 5164,
      "Ġlisted": 5165,
      "ById": 5166,
      "HP": 5167,
      "Ġrequests": 5168,
      "Ġdict": 5169,
      "LAY": 5170,
      "extra": 5171,
      "Ġsigned": 5172,
      "ĠOnly": 5173,
      "145": 5174,
      "imer": 5175,
      "TIC": 5176,
      "REVO": 5177,
      "Ġ*,": 5178,
      "ifiers": 5179,
      "changed": 5180,
      "ably": 5181,
      "ĠFree": 5182,
      "Ġcolors": 5183,
      "ðŁ": 5184,
      "DP": 5185,
      "FR": 5186,
      "MUL": 5187,
      "Ġedit": 5188,
      "-->": 5189,
      "*.": 5190,
      "sw": 5191,
      "Commands": 5192,
      "bind": 5193,
      "emove": 5194,
      "rouge": 5195,
      "194": 5196,
      "SUB": 5197,
      "wrap": 5198,
      "_\"": 5199,
      "ulate": 5200,
      "[\"": 5201,
      "Ġrespons": 5202,
      "Ġunderlying": 5203,
      "Ġjo": 5204,
      "Ġ\".\"": 5205,
      "Ġextract": 5206,
      "Ġactually": 5207,
      "rd": 5208,
      "ĠAlso": 5209,
      "132": 5210,
      "screen": 5211,
      "Ge": 5212,
      "Poly": 5213,
      "emon": 5214,
      "ĠNet": 5215,
      "Ġselected": 5216,
      "CD": 5217,
      "ups": 5218,
      "emory": 5219,
      "virDomain": 5220,
      "\\+": 5221,
      "SYS": 5222,
      "CII": 5223,
      "TextGenerator": 5224,
      "tile": 5225,
      "ĠFn": 5226,
      "ender": 5227,
      "ital": 5228,
      "Ġdestination": 5229,
      "Ġcompiled": 5230,
      "SYNC": 5231,
      "report": 5232,
      "Separator": 5233,
      "134": 5234,
      "arer": 5235,
      "Ġmeaning": 5236,
      "ĠTest": 5237,
      "Ġvery": 5238,
      "Ġspecification": 5239,
      "eca": 5240,
      "DECODER": 5241,
      "Ġdatabase": 5242,
      "ĠSource": 5243,
      "ness": 5244,
      "102": 5245,
      "Ġpixels": 5246,
      "sidered": 5247,
      "Added": 5248,
      "More": 5249,
      "Ġmechanis": 5250,
      "Ġexecutable": 5251,
      "dump": 5252,
      "cbb": 5253,
      "Ġclean": 5254,
      "olds": 5255,
      "Ġperformed": 5256,
      "click": 5257,
      "WA": 5258,
      "Ġspecifying": 5259,
      "lice": 5260,
      "ENCE": 5261,
      "ools": 5262,
      "Ġconsidered": 5263,
      "oot": 5264,
      "Ġ;": 5265,
      "REVOKED": 5266,
      "012": 5267,
      "Ġcomput": 5268,
      "Ġxmlns": 5269,
      "Ġincrement": 5270,
      "cut": 5271,
      "ĠDI": 5272,
      "poll": 5273,
      "\\_": 5274,
      "048": 5275,
      "Ġlarge": 5276,
      "Use": 5277,
      "&&(": 5278,
      "Ġsimply": 5279,
      "pcre": 5280,
      "ertitle": 5281,
      "headertitle": 5282,
      "post": 5283,
      "bits": 5284,
      "je": 5285,
      "\">--": 5286,
      "users": 5287,
      "Ġren": 5288,
      "fol": 5289,
      "Ġintern": 5290,
      "Ġdel": 5291,
      "Encryption": 5292,
      "CA": 5293,
      "Ġthree": 5294,
      "Ġstructures": 5295,
      "Ġmachine": 5296,
      "EBOOKHTMLToken": 5297,
      "unix": 5298,
      "Ġevalu": 5299,
      "LASS": 5300,
      ")),": 5301,
      "POINTER": 5302,
      "etter": 5303,
      "iet": 5304,
      "delim": 5305,
      "875": 5306,
      "ĠÃ®n": 5307,
      "structlibvisio": 5308,
      "pkg": 5309,
      "ĠLD": 5310,
      "share": 5311,
      "Span": 5312,
      "TY": 5313,
      "Ġserial": 5314,
      "New": 5315,
      "Ġblocks": 5316,
      "istered": 5317,
      "BASIC": 5318,
      "Ġip": 5319,
      "eed": 5320,
      "Ġwhose": 5321,
      "DECL": 5322,
      "Ġpref": 5323,
      "ĠOF": 5324,
      "asn": 5325,
      "CTEST": 5326,
      "Ġfollows": 5327,
      "getElementById": 5328,
      "318": 5329,
      "TX": 5330,
      "Ġmedi": 5331,
      "Ġprocesses": 5332,
      "DEF": 5333,
      "'/>": 5334,
      "any": 5335,
      "setup": 5336,
      "before": 5337,
      "nm": 5338,
      "mis": 5339,
      "Ġkeep": 5340,
      "serve": 5341,
      "822": 5342,
      "Ġturn": 5343,
      "Ġvector": 5344,
      "Ġloaded": 5345,
      "schema": 5346,
      "=\"\"/>": 5347,
      "reshold": 5348,
      "112": 5349,
      "ĠIV": 5350,
      "ĠGener": 5351,
      "Ġtimestamp": 5352,
      "fdb": 5353,
      "Ġgeneration": 5354,
      "TARGETS": 5355,
      "CHECK": 5356,
      "media": 5357,
      "808": 5358,
      "Ġresource": 5359,
      "SIGNING": 5360,
      "ORTED": 5361,
      "ĠWe": 5362,
      "deb": 5363,
      "Auth": 5364,
      "SCH": 5365,
      "Methods": 5366,
      "Ġdid": 5367,
      "values": 5368,
      "ested": 5369,
      "constant": 5370,
      "Ġpackets": 5371,
      "Ġapply": 5372,
      "FIND": 5373,
      "sources": 5374,
      "agnost": 5375,
      "`.": 5376,
      "ffff": 5377,
      "Ġeste": 5378,
      "Ġagainst": 5379,
      "Ġtrack": 5380,
      "Ġtemplate": 5381,
      "Ġgreater": 5382,
      "Ġ===": 5383,
      "Implement": 5384,
      "LES": 5385,
      "ĠBUGS": 5386,
      "quote": 5387,
      "skip": 5388,
      "uation": 5389,
      "parser": 5390,
      "={": 5391,
      "aad": 5392,
      "End": 5393,
      "details": 5394,
      "GR": 5395,
      "WIN": 5396,
      "########": 5397,
      "Ġarchive": 5398,
      "interp": 5399,
      "Ġam": 5400,
      "Ġdup": 5401,
      "Related": 5402,
      "Ġescape": 5403,
      "classWPX": 5404,
      "del": 5405,
      "high": 5406,
      "Ġtotal": 5407,
      "Ġsample": 5408,
      "GI": 5409,
      "System": 5410,
      "224": 5411,
      "Ġpointed": 5412,
      "ĠOptions": 5413,
      "Ġrecogn": 5414,
      "ĠMo": 5415,
      "handler": 5416,
      "Ġinvoked": 5417,
      "ĠPython": 5418,
      "Select": 5419,
      "ILITY": 5420,
      "ĠAllow": 5421,
      "Dummy": 5422,
      "NT": 5423,
      "Äħ": 5424,
      "499": 5425,
      "Ġstrict": 5426,
      "Exception": 5427,
      "Linux": 5428,
      "UINT": 5429,
      "ĠSets": 5430,
      "YS": 5431,
      "terminal": 5432,
      "Ġutility": 5433,
      "016": 5434,
      "Ġ?": 5435,
      "COL": 5436,
      "ences": 5437,
      "344": 5438,
      "Ġtopic": 5439,
      "Ġpeer": 5440,
      "ĠfÃ¶r": 5441,
      "izing": 5442,
      "Ġwidget": 5443,
      "redential": 5444,
      "Ã§": 5445,
      "PublicKey": 5446,
      "jor": 5447,
      "Ġ>>>": 5448,
      "variant": 5449,
      "REE": 5450,
      "lot": 5451,
      "ĠRETURN": 5452,
      "Ġmer": 5453,
      "Ġxref": 5454,
      "oundation": 5455,
      "301": 5456,
      "rand": 5457,
      "ĠPrint": 5458,
      "gs": 5459,
      "Ġitems": 5460,
      "modules": 5461,
      "267": 5462,
      "Ġaccording": 5463,
      "Ġrecommended": 5464,
      "Ġkitten": 5465,
      "Ġcalcul": 5466,
      "snapd": 5467,
      "GENERAL": 5468,
      "where": 5469,
      "Script": 5470,
      "Ġsymbol": 5471,
      "Ġwarnings": 5472,
      "/.": 5473,
      "ESS": 5474,
      "ssh": 5475,
      "scan": 5476,
      "ĠMAC": 5477,
      "ĠMake": 5478,
      "losing": 5479,
      "Ġsubsequent": 5480,
      "Metadata": 5481,
      "118": 5482,
      "MMAND": 5483,
      "Ġciphers": 5484,
      "Ġxrefstyle": 5485,
      "splitbar": 5486,
      "dependent": 5487,
      "Ġol": 5488,
      "Ġfunctionality": 5489,
      "());": 5490,
      "ĠLib": 5491,
      "ĠSoftware": 5492,
      "Ġcopied": 5493,
      "libimobiledevice": 5494,
      "Ġprec": 5495,
      "Ġcauses": 5496,
      "gon": 5497,
      "live": 5498,
      "ante": 5499,
      "ĠCURLOPT": 5500,
      "ĠExample": 5501,
      "ĠRead": 5502,
      "Ġupdated": 5503,
      "aeb": 5504,
      "{</": 5505,
      "indexterm": 5506,
      "Navigation": 5507,
      "CHO": 5508,
      "cpack": 5509,
      "initial": 5510,
      "PKI": 5511,
      "center": 5512,
      "''\\(^": 5513,
      "Ġcreating": 5514,
      "Window": 5515,
      "dest": 5516,
      "mq": 5517,
      "VOID": 5518,
      "ube": 5519,
      "MULTI": 5520,
      "OBJ": 5521,
      "Ġparser": 5522,
      "signature": 5523,
      "Ġfact": 5524,
      "clip": 5525,
      "tool": 5526,
      "gre": 5527,
      "engine": 5528,
      "Ġcompile": 5529,
      "Of": 5530,
      "Ġvariant": 5531,
      "ym": 5532,
      "ider": 5533,
      "icro": 5534,
      "ste": 5535,
      "375": 5536,
      "RI": 5537,
      "Ġsom": 5538,
      "Cert": 5539,
      "Ġboot": 5540,
      "ZMA": 5541,
      "ODUL": 5542,
      "Ġbound": 5543,
      "DEBUG": 5544,
      "LY": 5545,
      "abilities": 5546,
      "SYSTEM": 5547,
      "tabs": 5548,
      "Ġsuffix": 5549,
      "Ġspe": 5550,
      "Ġmatrix": 5551,
      "Documentation": 5552,
      "classlibqxp": 5553,
      "resize": 5554,
      "common": 5555,
      "inherit": 5556,
      "accept": 5557,
      "ĠDis": 5558,
      "prev": 5559,
      "aligned": 5560,
      "mg": 5561,
      "Ġdate": 5562,
      "Ġdefines": 5563,
      "acc": 5564,
      "Connect": 5565,
      "103": 5566,
      "izer": 5567,
      "054": 5568,
      "except": 5569,
      "classlibepubgen": 5570,
      "ĠOPTIONS": 5571,
      "umbnail": 5572,
      "beb": 5573,
      "Close": 5574,
      "kernel": 5575,
      "Ġau": 5576,
      "Ġ\\*": 5577,
      "Ġbuff": 5578,
      "StylesListener": 5579,
      "Ġhig": 5580,
      "Ġseparate": 5581,
      "TOR": 5582,
      "attrib": 5583,
      "opacity": 5584,
      "memSeparator": 5585,
      "Ġcondition": 5586,
      "lang": 5587,
      "0101": 5588,
      "Templ": 5589,
      "als": 5590,
      "Ġmaintain": 5591,
      "met": 5592,
      "UX": 5593,
      "990000": 5594,
      "Ġko": 5595,
      "================": 5596,
      "exist": 5597,
      "Ġmember": 5598,
      "Ġoptim": 5599,
      "ĠUp": 5600,
      "ĠTSS": 5601,
      "ENC": 5602,
      "sock": 5603,
      "Ġregister": 5604,
      "shake": 5605,
      "Ġincludes": 5606,
      "agement": 5607,
      "ĠAuthor": 5608,
      "udo": 5609,
      "classlibfreehand": 5610,
      "generate": 5611,
      "Callback": 5612,
      "pad": 5613,
      "Xt": 5614,
      "launch": 5615,
      "IVE": 5616,
      "Ġlv": 5617,
      "empty": 5618,
      "ueue": 5619,
      "ĠGet": 5620,
      "ierarch": 5621,
      "Ġein": 5622,
      "Ġdele": 5623,
      "CXX": 5624,
      "ĠXkb": 5625,
      "Ġkeyword": 5626,
      "Ġfd": 5627,
      "MEM": 5628,
      "LH": 5629,
      "layout": 5630,
      "Ġalias": 5631,
      "115": 5632,
      "public": 5633,
      "SOLUTE": 5634,
      "Ġimpro": 5635,
      "386": 5636,
      "memTempl": 5637,
      "fragment": 5638,
      "FORMATION": 5639,
      "versionmodified": 5640,
      "ormatted": 5641,
      "Ġabsolute": 5642,
      "Ġknow": 5643,
      "rt": 5644,
      "Ġaa": 5645,
      "0009": 5646,
      "XParser": 5647,
      "acf": 5648,
      "cret": 5649,
      "gettable": 5650,
      "ORS": 5651,
      "blue": 5652,
      "ĠISO": 5653,
      "Ġpop": 5654,
      "Ġexpressions": 5655,
      "execut": 5656,
      "supported": 5657,
      "STANDARD": 5658,
      "tered": 5659,
      "Ġmuch": 5660,
      "NavTree": 5661,
      "Byte": 5662,
      "initNavTree": 5663,
      "Ġfet": 5664,
      "Ġnormally": 5665,
      "ĠSince": 5666,
      "vim": 5667,
      "ABSOLUTE": 5668,
      "Snapd": 5669,
      "configure": 5670,
      "WN": 5671,
      "dox": 5672,
      "Ġextended": 5673,
      "Ġbeco": 5674,
      "Ġibv": 5675,
      "follow": 5676,
      "ĠLDAP": 5677,
      "116": 5678,
      "bile": 5679,
      "Ġerrno": 5680,
      "UIC": 5681,
      "FT": 5682,
      "ESCRIPTOR": 5683,
      "tractor": 5684,
      "undle": 5685,
      "TOOL": 5686,
      "shell": 5687,
      "ges": 5688,
      "Le": 5689,
      "way": 5690,
      "asure": 5691,
      "collect": 5692,
      "reply": 5693,
      "Ġsolid": 5694,
      "DIRECTORY": 5695,
      "Ġsequ": 5696,
      "FileStructure": 5697,
      "Field": 5698,
      "break": 5699,
      "kwargs": 5700,
      "Main": 5701,
      "decimal": 5702,
      "SR": 5703,
      "Ġ(!": 5704,
      "plit": 5705,
      "urnal": 5706,
      "Ġboolean": 5707,
      "DESCRIPTOR": 5708,
      "Ġ13": 5709,
      "Ġmd": 5710,
      "Sp": 5711,
      "Ġdue": 5712,
      "peri": 5713,
      "[:": 5714,
      "Ġworking": 5715,
      "Ġrate": 5716,
      "\\^(": 5717,
      "NOTES": 5718,
      "oto": 5719,
      "Ġsuccessfully": 5720,
      "({": 5721,
      "Ġ\\*(``": 5722,
      "XCODE": 5723,
      "Request": 5724,
      "FUNCTION": 5725,
      "abe": 5726,
      "adb": 5727,
      "Ġ\"(": 5728,
      "Ġbox": 5729,
      "SpreadsheetGenerator": 5730,
      "Ġcompletion": 5731,
      "Ġldap": 5732,
      "Ġsignific": 5733,
      "Ġroutine": 5734,
      "Ġpost": 5735,
      "CERTID": 5736,
      "ram": 5737,
      "zone": 5738,
      "Ġwide": 5739,
      "wpd": 5740,
      "astruct": 5741,
      "ĠDisplay": 5742,
      "Ġreferences": 5743,
      "?://": 5744,
      "HPKE": 5745,
      "PROP": 5746,
      "preformatted": 5747,
      "Ġber": 5748,
      "PREFIX": 5749,
      "hel": 5750,
      "Ġcapt": 5751,
      "synopsis": 5752,
      "Ġswitch": 5753,
      ")'": 5754,
      "asci": 5755,
      "access": 5756,
      "Iterator": 5757,
      "searchbox": 5758,
      "Ġbeginning": 5759,
      "gacy": 5760,
      "bfb": 5761,
      "ĠBase": 5762,
      "INFORMATION": 5763,
      "ENCODER": 5764,
      "Ġprevent": 5765,
      "SEC": 5766,
      "Ġgeneral": 5767,
      "ĠNew": 5768,
      "Perl": 5769,
      "AVL": 5770,
      "Int": 5771,
      "ĠSupport": 5772,
      "}</": 5773,
      "HTTP": 5774,
      "GER": 5775,
      "Graph": 5776,
      "sphinxsidebar": 5777,
      "dian": 5778,
      "bitrary": 5779,
      "Ġgroups": 5780,
      "-.": 5781,
      "IPS": 5782,
      "Ġimplicit": 5783,
      "ERE": 5784,
      "Ġrep": 5785,
      ":#": 5786,
      "gment": 5787,
      "sizeof": 5788,
      "BAND": 5789,
      "program": 5790,
      "ĠGeneral": 5791,
      "Ġplugin": 5792,
      "Ġseparated": 5793,
      "Ġobtained": 5794,
      "127": 5795,
      "Ġmag": 5796,
      "umns": 5797,
      "xt": 5798,
      "Ġstroke": 5799,
      "Ġautoc": 5800,
      "dist": 5801,
      "Ġff": 5802,
      "BSD": 5803,
      "afb": 5804,
      "NAMED": 5805,
      "Ġtreated": 5806,
      "Ġpers": 5807,
      "urrent": 5808,
      "dopen": 5809,
      "Ġintended": 5810,
      "sparql": 5811,
      "106": 5812,
      "Ġinstruction": 5813,
      "Ġsum": 5814,
      "derr": 5815,
      "ĠCMAKE": 5816,
      "flush": 5817,
      "ĠPer": 5818,
      "Ġ###": 5819,
      "ĠUN": 5820,
      "iliz": 5821,
      "Ġpages": 5822,
      "Version": 5823,
      "stit": 5824,
      "Ġverification": 5825,
      "Change": 5826,
      "Ġbro": 5827,
      "clearer": 5828,
      "POSIX": 5829,
      "ements": 5830,
      "gorithm": 5831,
      "ĠEXAMPLES": 5832,
      "119": 5833,
      "ENTRY": 5834,
      "ĠJSON": 5835,
      "uv": 5836,
      "*-": 5837,
      "searchlabel": 5838,
      "/\\:": 5839,
      "347": 5840,
      "ĠClass": 5841,
      "boot": 5842,
      "Ġdir": 5843,
      "Ġ!'": 5844,
      "ENCRYPTEDKEY": 5845,
      "Ġstreams": 5846,
      "classlibmspub": 5847,
      "'\"": 5848,
      "ecb": 5849,
      "certificate": 5850,
      "Ġchannels": 5851,
      "Ġstarted": 5852,
      "topless": 5853,
      "Ġtransfer": 5854,
      "secure": 5855,
      "Ġwar": 5856,
      "pages": 5857,
      "operation": 5858,
      "PEM": 5859,
      "Ġyield": 5860,
      "stderr": 5861,
      "marker": 5862,
      "bda": 5863,
      "PA": 5864,
      "Control": 5865,
      "ĠIEEE": 5866,
      "volume": 5867,
      "cour": 5868,
      "DrawingGenerator": 5869,
      "exit": 5870,
      "Ġproper": 5871,
      "113": 5872,
      "utex": 5873,
      "kg": 5874,
      "codec": 5875,
      "ĠNO": 5876,
      "Ġencode": 5877,
      "Ġhardware": 5878,
      "rootlink": 5879,
      "monition": 5880,
      "uk": 5881,
      "reldelim": 5882,
      "SING": 5883,
      "iling": 5884,
      "ĠEnable": 5885,
      "Ġorg": 5886,
      "sections": 5887,
      "',['../": 5888,
      "117": 5889,
      "Ġdescribes": 5890,
      "Ġenough": 5891,
      "regex": 5892,
      "xcb": 5893,
      "Ġcapability": 5894,
      "ua": 5895,
      "Ġcare": 5896,
      "aved": 5897,
      "ĠMD": 5898,
      "Ġ2000": 5899,
      "Ġexecuted": 5900,
      "ĠCan": 5901,
      "ene": 5902,
      "Queue": 5903,
      "network": 5904,
      "classlibabw": 5905,
      "Ġpem": 5906,
      "PROVID": 5907,
      "kit": 5908,
      "164": 5909,
      "oll": 5910,
      "ĠMember": 5911,
      "As": 5912,
      "Ġist": 5913,
      "colon": 5914,
      "VIDIA": 5915,
      "tric": 5916,
      "Application": 5917,
      "Ġredu": 5918,
      "Ġmanip": 5919,
      "Fixed": 5920,
      "00000000": 5921,
      "cpu": 5922,
      "Ġoch": 5923,
      "readwrite": 5924,
      "rectory": 5925,
      "ĠQu": 5926,
      "matrix": 5927,
      "DED": 5928,
      "Ġmissing": 5929,
      "Ġprior": 5930,
      "utdown": 5931,
      "ATCH": 5932,
      "tk": 5933,
      "RVNGDummy": 5934,
      "Handler": 5935,
      "Ġresulting": 5936,
      "pu": 5937,
      "Ġwin": 5938,
      "precision": 5939,
      "''+": 5940,
      "Ġnative": 5941,
      "oti": 5942,
      "Ġrelated": 5943,
      "ĠFt": 5944,
      "Ã¤n": 5945,
      "186": 5946,
      "Ġcodes": 5947,
      "pc": 5948,
      "Log": 5949,
      "NEW": 5950,
      "126": 5951,
      "Ġownership": 5952,
      "enter": 5953,
      "libabw": 5954,
      "Ġwindows": 5955,
      "eject": 5956,
      "Ġintroduced": 5957,
      "}),": 5958,
      "ITE": 5959,
      "200": 5960,
      "BY": 5961,
      "opts": 5962,
      "kely": 5963,
      "tw": 5964,
      "lower": 5965,
      "INGS": 5966,
      "Display": 5967,
      "trusted": 5968,
      "ĠĠĠĠĠĠĠĠĠĠĠĠĠĠĠĠĠ": 5969,
      "MONTH": 5970,
      "ĠCre": 5971,
      "Ġstep": 5972,
      "Ġ19": 5973,
      "Ġsizeof": 5974,
      "Ġagain": 5975,
      "aba": 5976,
      "settable": 5977,
      "ATAVS": 5978,
      "ĠImage": 5979,
      "anged": 5980,
      "ĠUnix": 5981,
      "checked": 5982,
      "Ġmodel": 5983,
      "foldopen": 5984,
      "|\\": 5985,
      "Ġindicating": 5986,
      "mobile": 5987,
      "mething": 5988,
      "admonition": 5989,
      "dn": 5990,
      "MAPPINGS": 5991,
      "Ġbinding": 5992,
      "'):": 5993,
      "Device": 5994,
      "missions": 5995,
      "INIT": 5996,
      "ILEGE": 5997,
      "CALC": 5998,
      "Ġcu": 5999,
      "Ġdecode": 6000,
      "Ġclasses": 6001,
      "Ġguest": 6002,
      "ermin": 6003,
      "ĠDER": 6004,
      "ĠAC": 6005,
      "colors": 6006,
      "ĠBu": 6007,
      "crypto": 6008,
      "Ġwrites": 6009,
      "arison": 6010,
      "irc": 6011,
      "BMAC": 6012,
      ";\">&#": 6013,
      "filters": 6014,
      "Ġqualifier": 6015,
      "WEE": 6016,
      "Ġsymbolic": 6017,
      "Ġretrieved": 6018,
      "~~~~~~~~": 6019,
      "Ġiter": 6020,
      "CHOICE": 6021,
      "Ġminimum": 6022,
      "mtp": 6023,
      "ENGTH": 6024,
      "Ġexactly": 6025,
      "Ġkan": 6026,
      "ITAV": 6027,
      "COMPILER": 6028,
      "Ġ18": 6029,
      "Ġ#:": 6030,
      "ĠTCP": 6031,
      "Ġbasic": 6032,
      "ebe": 6033,
      "rout": 6034,
      "Ġadds": 6035,
      "PRIVILEGE": 6036,
      "playlist": 6037,
      "xz": 6038,
      "ĠVim": 6039,
      "TARGETING": 6040,
      "WEEKS": 6041,
      "\"</": 6042,
      "attribs": 6043,
      "PROVIDER": 6044,
      "Ġmodes": 6045,
      "Force": 6046,
      "logy": 6047,
      "Ġapplied": 6048,
      "Ġmechanism": 6049,
      "Ġte": 6050,
      "atio": 6051,
      "ĠExamples": 6052,
      "Ġattempts": 6053,
      "peek": 6054,
      "versionadded": 6055,
      "Ġdiction": 6056,
      "Ġfetched": 6057,
      "Å¼": 6058,
      "CipherInit": 6059,
      "ede": 6060,
      "Ġassigned": 6061,
      "ignore": 6062,
      "]],": 6063,
      "separ": 6064,
      "Ġdepending": 6065,
      "Ġchecking": 6066,
      "mental": 6067,
      "Ġconditions": 6068,
      "Ġunset": 6069,
      "libctx": 6070,
      "safe": 6071,
      ",.": 6072,
      "Ġbetter": 6073,
      "Ġatta": 6074,
      "bca": 6075,
      "variablelist": 6076,
      "UND": 6077,
      "%\"": 6078,
      "Ġ*<": 6079,
      "GUMENTS": 6080,
      "Ġbar": 6081,
      "scr": 6082,
      "ĠNumber": 6083,
      "force": 6084,
      "FHCollector": 6085,
      "ĠPAM": 6086,
      "RINT": 6087,
      "divid": 6088,
      "Note": 6089,
      "sto": 6090,
      "Width": 6091,
      "zen": 6092,
      "arante": 6093,
      "Show": 6094,
      "averse": 6095,
      "OUTPUT": 6096,
      "Ġaddresses": 6097,
      "(*": 6098,
      "Ġul": 6099,
      "thers": 6100,
      "Ġexecution": 6101,
      "ĠFa": 6102,
      "FD": 6103,
      "\\\\*(": 6104,
      "SKEY": 6105,
      "096": 6106,
      "vider": 6107,
      "ĠData": 6108,
      ">\"&#": 6109,
      "FESSION": 6110,
      "TST": 6111,
      "ĠCall": 6112,
      "Ġopened": 6113,
      "yes": 6114,
      "\\^(\\|": 6115,
      "ĠGEN": 6116,
      "Utils": 6117,
      "actions": 6118,
      "124": 6119,
      "''|": 6120,
      "ĠFOR": 6121,
      "Ġlt": 6122,
      "CMS": 6123,
      "Ġregistered": 6124,
      "ierarchy": 6125,
      "sha": 6126,
      "PROJECT": 6127,
      "Ġbugs": 6128,
      "Per": 6129,
      "cls": 6130,
      "ĠExt": 6131,
      "Ġsec": 6132,
      "DEVICE": 6133,
      "Ġ\\(^": 6134,
      "Ġ##": 6135,
      "overlay": 6136,
      "expect": 6137,
      "ĠSO": 6138,
      "gether": 6139,
      "prototype": 6140,
      "'|\\(^": 6141,
      "Ġcolumn": 6142,
      "Ġclock": 6143,
      "ĠBo": 6144,
      "verbose": 6145,
      "Ġtargets": 6146,
      "settings": 6147,
      "ips": 6148,
      "Ġfreeing": 6149,
      "Ġalternative": 6150,
      "ring": 6151,
      "son": 6152,
      "ĠCRL": 6153,
      "Ġ\\()": 6154,
      "cleanup": 6155,
      "LENGTH": 6156,
      "Ġ};": 6157,
      "cons": 6158,
      "Ġresponsible": 6159,
      "RAN": 6160,
      "hy": 6161,
      "formats": 6162,
      "Ġutiliz": 6163,
      "Ġcopies": 6164,
      "protected": 6165,
      "ĠClient": 6166,
      "Ġchunk": 6167,
      "Ġterm": 6168,
      "MODUL": 6169,
      "cover": 6170,
      "ĠPort": 6171,
      "ently": 6172,
      "ograph": 6173,
      "idi": 6174,
      "loop": 6175,
      "ipient": 6176,
      "commands": 6177,
      "Ġarbitrary": 6178,
      "omic": 6179,
      "::_": 6180,
      "OutputStream": 6181,
      "Ġ-*-": 6182,
      "Sc": 6183,
      "Level": 6184,
      "expressions": 6185,
      "bg": 6186,
      "DES": 6187,
      "ERAL": 6188,
      "Ġ&__": 6189,
      "stringliteral": 6190,
      "Ġparallel": 6191,
      "ined": 6192,
      "trl": 6193,
      "BER": 6194,
      "Inst": 6195,
      "ĠSetting": 6196,
      "Ġplatforms": 6197,
      "memory": 6198,
      "Ġ<=": 6199,
      "seek": 6200,
      "Ġhy": 6201,
      "Ġprinted": 6202,
      "\">/*": 6203,
      "Ġadv": 6204,
      "EME": 6205,
      "cursor": 6206,
      "Ġlex": 6207,
      "ĠDefaults": 6208,
      "Ġsi": 6209,
      "');": 6210,
      "Ġenv": 6211,
      "crl": 6212,
      "hl": 6213,
      "etan": 6214,
      "character": 6215,
      "Ġdisplayed": 6216,
      "Ġ})": 6217,
      "usage": 6218,
      "ĠCommands": 6219,
      "357": 6220,
      "USAGE": 6221,
      "era": 6222,
      "ĠFormat": 6223,
      "ĠText": 6224,
      "ibetan": 6225,
      "paramgen": 6226,
      "most": 6227,
      "dle": 6228,
      "]],\"": 6229,
      "aed": 6230,
      "ÈĻi": 6231,
      "135": 6232,
      "Ġscalar": 6233,
      "Ġsure": 6234,
      "Ġ[<": 6235,
      "Ġconverted": 6236,
      "exception": 6237,
      "Ġgen": 6238,
      "Ġgeneric": 6239,
      "conn": 6240,
      "Interp": 6241,
      "Ġwords": 6242,
      "ĠTODO": 6243,
      "adf": 6244,
      "rupt": 6245,
      "Ġsnap": 6246,
      "ENUM": 6247,
      "ĠConfig": 6248,
      "iface": 6249,
      "032": 6250,
      "Ġtaken": 6251,
      "vices": 6252,
      "Specif": 6253,
      "tte": 6254,
      "Code": 6255,
      "Ġparsing": 6256,
      "ĠSer": 6257,
      "Next": 6258,
      "sample": 6259,
      "ordinates": 6260,
      "Ġcert": 6261,
      "197": 6262,
      "Ġembed": 6263,
      "Ġtempor": 6264,
      "MSPUBParser": 6265,
      "Ġproblem": 6266,
      "xmlSec": 6267,
      "Ġnodes": 6268,
      "Ġdepends": 6269,
      "wards": 6270,
      "gg": 6271,
      "Ġdependencies": 6272,
      "Start": 6273,
      "itespace": 6274,
      "Ġ\");\"": 6275,
      "Ġyet": 6276,
      "Ġaligned": 6277,
      "ni": 6278,
      "Ġprop": 6279,
      "Ġentirely": 6280,
      "cee": 6281,
      "BBe": 6282,
      "Foo": 6283,
      "aves": 6284,
      "Ġproble": 6285,
      "category": 6286,
      "Dict": 6287,
      "Off": 6288,
      "thumbnail": 6289,
      "ansion": 6290,
      "Impl": 6291,
      "Ġsequences": 6292,
      "Ġ128": 6293,
      "264": 6294,
      "Ġcontrols": 6295,
      "Ġcopyright": 6296,
      "Ġecho": 6297,
      "TEMPL": 6298,
      "ACT": 6299,
      "SIGNATURE": 6300,
      "Ġundefined": 6301,
      "GError": 6302,
      "168": 6303,
      "Types": 6304,
      "classes": 6305,
      "structlibebook": 6306,
      "ĠSS": 6307,
      "sets": 6308,
      "Ġable": 6309,
      "Ġlicense": 6310,
      "aps": 6311,
      "Ġink": 6312,
      "Ġprofile": 6313,
      "ĠCom": 6314,
      "âĢĻ": 6315,
      "Ġduplic": 6316,
      "REAM": 6317,
      "ÄĻ": 6318,
      "Ġpriv": 6319,
      "ĠMiller": 6320,
      "une": 6321,
      "ASI": 6322,
      "ÅĤ": 6323,
      "cker": 6324,
      "Ġperformance": 6325,
      "ayload": 6326,
      "Ġsuc": 6327,
      "scheme": 6328,
      "edData": 6329,
      "Compose": 6330,
      "User": 6331,
      "Ġstop": 6332,
      "unref": 6333,
      "Ġfragment": 6334,
      "AVE": 6335,
      "ĠSTACK": 6336,
      "1394": 6337,
      "ulated": 6338,
      "Ġinternally": 6339,
      "pool": 6340,
      "mc": 6341,
      "014": 6342,
      "stats": 6343,
      "203": 6344,
      "lier": 6345,
      "Ġguarante": 6346,
      "ROOT": 6347,
      "Ġretrieve": 6348,
      "Ġselection": 6349,
      "highp": 6350,
      "endif": 6351,
      "144": 6352,
      "Ġge": 6353,
      "entru": 6354,
      "Ġ(?": 6355,
      "Ġhandled": 6356,
      "ĠOper": 6357,
      "Ġunique": 6358,
      "Ġscripts": 6359,
      "power": 6360,
      "Choice": 6361,
      "cale": 6362,
      "328": 6363,
      "ssue": 6364,
      "Ġproduce": 6365,
      "mlink": 6366,
      "SCHEME": 6367,
      "issuer": 6368,
      "Ġmatched": 6369,
      "notify": 6370,
      "Free": 6371,
      "UA": 6372,
      "Functions": 6373,
      "FORMAT": 6374,
      ")\",": 6375,
      "itect": 6376,
      "Func": 6377,
      "easy": 6378,
      "ÅĽ": 6379,
      "ĠTodd": 6380,
      "Ġresources": 6381,
      "aae": 6382,
      "Ġles": 6383,
      "\\:.": 6384,
      "Ġpurpose": 6385,
      "ony": 6386,
      "GL": 6387,
      "bad": 6388,
      "onical": 6389,
      "ategor": 6390,
      "Ġcached": 6391,
      "Tab": 6392,
      "Ġinitialization": 6393,
      "aef": 6394,
      "Rect": 6395,
      "Ġ~": 6396,
      "Ġindivid": 6397,
      "Ġdelay": 6398,
      "Ġoperating": 6399,
      "Ġinherited": 6400,
      "alette": 6401,
      "Load": 6402,
      "ĠDOCU": 6403,
      "math": 6404,
      "Signal": 6405,
      "Hel": 6406,
      "pipeline": 6407,
      "Ġfilters": 6408,
      "acb": 6409,
      "tributed": 6410,
      "Ġsafe": 6411,
      "keygen": 6412,
      "Ġbody": 6413,
      "Ġ256": 6414,
      "disk": 6415,
      "Su": 6416,
      "nbd": 6417,
      "aec": 6418,
      "Ġplaced": 6419,
      "'))": 6420,
      "\\*(''": 6421,
      "137": 6422,
      "etime": 6423,
      "CRO": 6424,
      "Ġfew": 6425,
      "NV": 6426,
      "stand": 6427,
      "Ġlayout": 6428,
      "Ġpad": 6429,
      "IMPRINT": 6430,
      "Ġnbd": 6431,
      "comple": 6432,
      "antic": 6433,
      "Miller": 6434,
      "Todd": 6435,
      "extend": 6436,
      "Sche": 6437,
      "Ġthus": 6438,
      "Ġaccepted": 6439,
      "Xkb": 6440,
      "Ġkeyboard": 6441,
      "gument": 6442,
      "gits": 6443,
      "325": 6444,
      "Ġcorrectly": 6445,
      "SEQU": 6446,
      "yntax": 6447,
      "appstream": 6448,
      "AppInfo": 6449,
      "CONN": 6450,
      "Ġrepository": 6451,
      "Ġeng": 6452,
      "Ġsources": 6453,
      "Ġcomment": 6454,
      "specified": 6455,
      "Ġzip": 6456,
      "Repository": 6457,
      "(_": 6458,
      "ĠDv": 6459,
      "111": 6460,
      "ListElement": 6461,
      "ZMF": 6462,
      "ĠPre": 6463,
      "Ġdecrypt": 6464,
      "neg": 6465,
      "sf": 6466,
      "Ġrepe": 6467,
      "Ġsections": 6468,
      "FixedLengthGroup": 6469,
      "aab": 6470,
      "ĠUsing": 6471,
      "ĠĠĠĠĠĠĠĠĠĠĠĠĠĠĠĠĠĠĠĠĠĠĠĠĠĠĠĠĠĠĠ": 6472,
      "Ġactions": 6473,
      "Ġcoun": 6474,
      ":<": 6475,
      "TEMPLATE": 6476,
      "Ġprob": 6477,
      "Ġallocation": 6478,
      "oriz": 6479,
      "ĠCreate": 6480,
      "osition": 6481,
      "2024": 6482,
      "Ġpot": 6483,
      "ĠÃ¤r": 6484,
      "lat": 6485,
      "Ġdecimal": 6486,
      "sa": 6487,
      "Ġothers": 6488,
      "Ġnumeric": 6489,
      "Handle": 6490,
      "'');": 6491,
      "ĠARGUMENTS": 6492,
      "Ġlikely": 6493,
      "bugs": 6494,
      "libepubgen": 6495,
      "Ġconnections": 6496,
      "147": 6497,
      "Ġpositive": 6498,
      "','');": 6499,
      "uff": 6500,
      "Ġrepresents": 6501,
      "Ġhowever": 6502,
      "BD": 6503,
      "ĠTPM": 6504,
      "Ġhold": 6505,
      "itecture": 6506,
      "156": 6507,
      "wall": 6508,
      "Ġfetch": 6509,
      "hd": 6510,
      "lish": 6511,
      "Ġcar": 6512,
      "iddle": 6513,
      "Ġoutside": 6514,
      "','','');": 6515,
      "Ġalong": 6516,
      "ites": 6517,
      "Ġiss": 6518,
      "Ġ||": 6519,
      "themes": 6520,
      "alf": 6521,
      "cest": 6522,
      "Ġauthor": 6523,
      "AIN": 6524,
      "cookie": 6525,
      "libzmf": 6526,
      "2025": 6527,
      "QUAL": 6528,
      "Ġaccount": 6529,
      "redentials": 6530,
      "Custom": 6531,
      "LINKER": 6532,
      "ĠLZMA": 6533,
      "real": 6534,
      "tact": 6535,
      "Ġcomparison": 6536,
      "Ġtherefore": 6537,
      "cec": 6538,
      "compare": 6539,
      "Ġissue": 6540,
      "Ġâ": 6541,
      "ĠASCII": 6542,
      "irm": 6543,
      "draw": 6544,
      "VAR": 6545,
      "ĠDet": 6546,
      ".\",\"": 6547,
      "345": 6548,
      "ĠAfter": 6549,
      "ĠCheck": 6550,
      "Ġallocate": 6551,
      "Ġunknown": 6552,
      "Ġstand": 6553,
      "ios": 6554,
      "Ġfunc": 6555,
      "Ġpermitted": 6556,
      "Ġaround": 6557,
      "Since": 6558,
      "ĠXref": 6559,
      ">[": 6560,
      "ĠIE": 6561,
      "sn": 6562,
      "EncryptInit": 6563,
      "Ġdictionary": 6564,
      "fafb": 6565,
      "gacd": 6566,
      "ulation": 6567,
      "Ġcapture": 6568,
      "527": 6569,
      "ĠLo": 6570,
      "VSDContentCollector": 6571,
      "gl": 6572,
      "tests": 6573,
      "sched": 6574,
      ";/": 6575,
      "FEATURE": 6576,
      "Ġsomething": 6577,
      "Ġdump": 6578,
      "Ġpatterns": 6579,
      "Ġdelete": 6580,
      "dirs": 6581,
      "ĠRepresent": 6582,
      "Ġcapabilities": 6583,
      "Ġspeed": 6584,
      "seed": 6585,
      "ONT": 6586,
      "Ġnewline": 6587,
      "Construct": 6588,
      "180": 6589,
      "129": 6590,
      "COMMAND": 6591,
      "STOM": 6592,
      "307": 6593,
      "ĠNmap": 6594,
      "pg": 6595,
      "ĠVariable": 6596,
      "ORIES": 6597,
      ".\\": 6598,
      "inc": 6599,
      "what": 6600,
      "Module": 6601,
      "196": 6602,
      "Ġiterator": 6603,
      "alog": 6604,
      "All": 6605,
      "323": 6606,
      "ROM": 6607,
      "Ġhigher": 6608,
      "qt": 6609,
      "enumvalue": 6610,
      ".*": 6611,
      "Ġbold": 6612,
      "377": 6613,
      "SubDocument": 6614,
      "oring": 6615,
      "Ġrefer": 6616,
      "Ġupper": 6617,
      "minimum": 6618,
      "Ġinterpreted": 6619,
      "Thread": 6620,
      "ando": 6621,
      "ROID": 6622,
      "Polygon": 6623,
      "vant": 6624,
      "ĠIO": 6625,
      "GAVL": 6626,
      "Ġmed": 6627,
      "priority": 6628,
      "fix": 6629,
      "iting": 6630,
      "apping": 6631,
      "Fin": 6632,
      "176": 6633,
      "He": 6634,
      "Ġdetect": 6635,
      "ĠThat": 6636,
      "ĠRequest": 6637,
      "015": 6638,
      "Ġ\"%": 6639,
      "POLL": 6640,
      "tore": 6641,
      "060": 6642,
      "Ġlibvirt": 6643,
      "yt": 6644,
      "gb": 6645,
      "ĠUser": 6646,
      "\">//": 6647,
      "CUSTOM": 6648,
      "Ġinitialize": 6649,
      "146": 6650,
      "WORK": 6651,
      "Ġlayer": 6652,
      "ai": 6653,
      "673": 6654,
      "mediump": 6655,
      "Ġsur": 6656,
      "aea": 6657,
      "Ġbig": 6658,
      "Ġmp": 6659,
      "Ġtill": 6660,
      "ssible": 6661,
      "Ġ\".": 6662,
      "endor": 6663,
      "122": 6664,
      "Ġ>=": 6665,
      "awn": 6666,
      "bered": 6667,
      "equal": 6668,
      "Ġmanager": 6669,
      "ĠPOLICY": 6670,
      "Ġdebugging": 6671,
      "Ġencrypted": 6672,
      "Ġcls": 6673,
      "ĠSE": 6674,
      "Ġpackages": 6675,
      "677": 6676,
      "ategories": 6677,
      "separated": 6678,
      "Ġpassing": 6679,
      "Ġmouse": 6680,
      "Ġinkscape": 6681,
      "138": 6682,
      "Ġhw": 6683,
      "MULTIBLOCK": 6684,
      "143": 6685,
      "']]],": 6686,
      "Ġparsed": 6687,
      "submit": 6688,
      "ural": 6689,
      "iff": 6690,
      "Ġlogging": 6691,
      "ĠNs": 6692,
      "zer": 6693,
      "profile": 6694,
      "225": 6695,
      "Ġ::": 6696,
      "Ġreturning": 6697,
      "ENUMER": 6698,
      "Ġdestroy": 6699,
      "location": 6700,
      "ĠGENERAL": 6701,
      "(&": 6702,
      "\">_": 6703,
      "Ġinline": 6704,
      "Ġsubstit": 6705,
      "libpagemaker": 6706,
      "Ġcombination": 6707,
      "ANDROID": 6708,
      "DIRECTORIES": 6709,
      ":*": 6710,
      "PSS": 6711,
      "ators": 6712,
      "tags": 6713,
      "BIN": 6714,
      "racket": 6715,
      "Ġparts": 6716,
      "ertex": 6717,
      "Directory": 6718,
      "234": 6719,
      "`,": 6720,
      "shift": 6721,
      "Ġheadline": 6722,
      "titles": 6723,
      "Memory": 6724,
      "Ġplus": 6725,
      "Ġfour": 6726,
      "iki": 6727,
      "ĠLIBMTP": 6728,
      "209": 6729,
      "00921": 6730,
      "SVG": 6731,
      "clusive": 6732,
      "Match": 6733,
      "ffmpeg": 6734,
      "Mon": 6735,
      "Ġreplaced": 6736,
      "Filter": 6737,
      "itu": 6738,
      "Ġgain": 6739,
      "Ġscheme": 6740,
      "abd": 6741,
      "Ġrecurs": 6742,
      "139": 6743,
      "Ġshown": 6744,
      "uss": 6745,
      "\"/></": 6746,
      "DocumentStructure": 6747,
      "ĠCA": 6748,
      "ĠRepresents": 6749,
      "304": 6750,
      "WINDOW": 6751,
      "structlibqxp": 6752,
      "StyleManager": 6753,
      "Ġorigin": 6754,
      "Ġil": 6755,
      "Ġdescname": 6756,
      "Ġwird": 6757,
      "Ġcho": 6758,
      "second": 6759,
      "Ġtools": 6760,
      "anguages": 6761,
      "189": 6762,
      "interfaces": 6763,
      "207": 6764,
      "ĠÈĻi": 6765,
      "requency": 6766,
      "ĠShow": 6767,
      "Ġpid": 6768,
      "Target": 6769,
      "Ġpan": 6770,
      "ĠValueError": 6771,
      "Ġgive": 6772,
      "Ġlists": 6773,
      "205": 6774,
      "120": 6775,
      "ĠMUST": 6776,
      "istics": 6777,
      "ync": 6778,
      "dea": 6779,
      "Ġexamples": 6780,
      "AMP": 6781,
      "ĠIPAddress": 6782,
      "lua": 6783,
      "LIBRARIES": 6784,
      "licies": 6785,
      "dsa": 6786,
      "Ġbest": 6787,
      "funcprototype": 6788,
      "uman": 6789,
      "Ġruntime": 6790,
      "ĠURI": 6791,
      "slash": 6792,
      "mv": 6793,
      "ynchronous": 6794,
      "prime": 6795,
      "ĠRVNG": 6796,
      "Ġdl": 6797,
      "Ġdepth": 6798,
      ")',": 6799,
      "Ġunits": 6800,
      "Build": 6801,
      "Ġdaemon": 6802,
      "dependen": 6803,
      "Ġconven": 6804,
      "fail": 6805,
      "177": 6806,
      "110": 6807,
      "Volume": 6808,
      "seudo": 6809,
      "LOPE": 6810,
      "fafbafd": 6811,
      "si": 6812,
      "alpha": 6813,
      "ENVE": 6814,
      "ENVELOPE": 6815,
      "Ġ'#": 6816,
      "Ġlarger": 6817,
      "year": 6818,
      "CHAR": 6819,
      "Makefile": 6820,
      "funcdef": 6821,
      "SAFE": 6822,
      "Ġ\"#": 6823,
      "Ġ\"<": 6824,
      "ĠOutput": 6825,
      "Ġbuiltin": 6826,
      "Ġderivation": 6827,
      "\">:</": 6828,
      "quire": 6829,
      "Ġfallback": 6830,
      "Ġarea": 6831,
      "ĠTHE": 6832,
      "ĠGPU": 6833,
      "MQ": 6834,
      "notices": 6835,
      "Ġffmpeg": 6836,
      "stant": 6837,
      "pending": 6838,
      "StylesCollector": 6839,
      "Ġpermissions": 6840,
      "REQU": 6841,
      "Ġtd": 6842,
      "Ġinc": 6843,
      "packet": 6844,
      "Ġtogether": 6845,
      "IPAddress": 6846,
      "Ġreads": 6847,
      "TC": 6848,
      ",\"\",\"": 6849,
      "descriptors": 6850,
      "Ġdem": 6851,
      "140": 6852,
      "andle": 6853,
      "ĠFoundation": 6854,
      "syntax": 6855,
      "tty": 6856,
      "ĠObject": 6857,
      "SPK": 6858,
      "Ġlibnet": 6859,
      "'(": 6860,
      "Gets": 6861,
      "Ġhook": 6862,
      "ico": 6863,
      "Ġdisp": 6864,
      "TAG": 6865,
      "Ġinterfaces": 6866,
      "Ġconsider": 6867,
      "CERTTEMPLATE": 6868,
      "lowp": 6869,
      "BLE": 6870,
      "straint": 6871,
      "133": 6872,
      "Ġstarts": 6873,
      "Ġproblems": 6874,
      "Ġproxy": 6875,
      "abf": 6876,
      "OrRange": 6877,
      "notes": 6878,
      "dw": 6879,
      "macros": 6880,
      "Ġmac": 6881,
      "XMLParser": 6882,
      "Ġfore": 6883,
      "Ġdas": 6884,
      "transform": 6885,
      "208": 6886,
      "funcsynopsis": 6887,
      "Extractor": 6888,
      "xim": 6889,
      "PC": 6890,
      "SM": 6891,
      "acd": 6892,
      "ifest": 6893,
      "COMPAT": 6894,
      "ĠSte": 6895,
      "ĠAppStream": 6896,
      "Ġhappen": 6897,
      "bdd": 6898,
      "matching": 6899,
      "1999": 6900,
      "BN": 6901,
      "aaa": 6902,
      "Point": 6903,
      "MENTED": 6904,
      "constructors": 6905,
      "Ġpentru": 6906,
      "Ġred": 6907,
      "istent": 6908,
      "descriptor": 6909,
      "Ġ25": 6910,
      "ards": 6911,
      "Ġpipecmd": 6912,
      "Ali": 6913,
      "ĠNV": 6914,
      "STREAM": 6915,
      "ĠxmlSec": 6916,
      "opensearchdescription": 6917,
      "ĠSCT": 6918,
      "ĠGe": 6919,
      "Member": 6920,
      "shadow": 6921,
      "Ġbranch": 6922,
      "ContentInfo": 6923,
      "ĠReg": 6924,
      "188": 6925,
      "tip": 6926,
      "067": 6927,
      "proto": 6928,
      "unctuation": 6929,
      "cal": 6930,
      "dad": 6931,
      "gad": 6932,
      "ĠPR": 6933,
      "ike": 6934,
      "convert": 6935,
      "Ġexecute": 6936,
      "atabase": 6937,
      "Ġseparator": 6938,
      "027": 6939,
      "terminated": 6940,
      "ower": 6941,
      "lers": 6942,
      "Ġdefining": 6943,
      "Ġscope": 6944,
      "foot": 6945,
      "Ġblue": 6946,
      "hw": 6947,
      "ppm": 6948,
      "tv": 6949,
      "ESYS": 6950,
      "Ġmail": 6951,
      "CONT": 6952,
      "countries": 6953,
      "159": 6954,
      "Ġcaused": 6955,
      "Ġasynchronous": 6956,
      "provider": 6957,
      "strip": 6958,
      "Ġhad": 6959,
      "DEPEN": 6960,
      "Ġrecords": 6961,
      "Ġones": 6962,
      "Ġzone": 6963,
      "escape": 6964,
      "peer": 6965,
      "Ġseed": 6966,
      "orizont": 6967,
      "SEQUENCE": 6968,
      "save": 6969,
      "upload": 6970,
      "ĠOB": 6971,
      "ĠFl": 6972,
      "Ġ{\"": 6973,
      "ĠGets": 6974,
      "Ġwer": 6975,
      "compression": 6976,
      "unding": 6977,
      "Ġum": 6978,
      "REQUI": 6979,
      "lished": 6980,
      "ĠPTP": 6981,
      "Params": 6982,
      "'\\(^": 6983,
      "Ġduration": 6984,
      "Ġwhole": 6985,
      "Param": 6986,
      "577": 6987,
      "ern": 6988,
      "039": 6989,
      "aee": 6990,
      "pdf": 6991,
      "CMD": 6992,
      "reek": 6993,
      "Ġ'%": 6994,
      "Proxy": 6995,
      "Ġbuffers": 6996,
      "Tip": 6997,
      "fields": 6998,
      "Ġri": 6999,
      "anced": 7000,
      "Ġbus": 7001,
      "bas": 7002,
      "isode": 7003,
      "Ġtask": 7004,
      "Parsing": 7005,
      "Ġinterval": 7006,
      "'re": 7007,
      "TRACE": 7008,
      "Ġstdout": 7009,
      "Ġassumed": 7010,
      "525": 7011,
      "stract": 7012,
      "Ġidentical": 7013,
      "Ġreported": 7014,
      "226": 7015,
      "backref": 7016,
      "plan": 7017,
      "features": 7018,
      "Vertex": 7019,
      "archive": 7020,
      "ĠYET": 7021,
      "Ġolder": 7022,
      "VSDParser": 7023,
      "Ġprinter": 7024,
      "Ġsymbols": 7025,
      "Ġvertical": 7026,
      "ĠLine": 7027,
      "PROXY": 7028,
      "Ġdocumented": 7029,
      "Ġ84": 7030,
      "tributors": 7031,
      "brow": 7032,
      "Release": 7033,
      "aq": 7034,
      "Ġforce": 7035,
      "clipboard": 7036,
      "Ġ'\\\\": 7037,
      "Ġactiv": 7038,
      "046": 7039,
      "ĠDOCUMENTED": 7040,
      "Ġ(-": 7041,
      "edit": 7042,
      "Cancellable": 7043,
      "BBeB": 7044,
      "ĠMode": 7045,
      "Ġ30": 7046,
      "theora": 7047,
      "949": 7048,
      "ĠÃ©": 7049,
      "CRYPT": 7050,
      "121": 7051,
      "ACCESS": 7052,
      "isual": 7053,
      "tools": 7054,
      "ĠMax": 7055,
      "velopers": 7056,
      "ĠJo": 7057,
      "ĠASYNC": 7058,
      "Ġlogin": 7059,
      "cing": 7060,
      "216": 7061,
      "MAL": 7062,
      "Ġindividual": 7063,
      "Ġshift": 7064,
      "Ġ2018": 7065,
      "platform": 7066,
      "PARAMETERS": 7067,
      "va": 7068,
      "Ġdriv": 7069,
      ")\\": 7070,
      "gchar": 7071,
      "155": 7072,
      "ĠReport": 7073,
      "alk": 7074,
      "Ġbackend": 7075,
      "ii": 7076,
      "644": 7077,
      "Ġdet": 7078,
      "395": 7079,
      "Results": 7080,
      "delay": 7081,
      "day": 7082,
      "Ġclients": 7083,
      "047": 7084,
      ")).": 7085,
      ">;": 7086,
      "ĠValid": 7087,
      "EGER": 7088,
      "038": 7089,
      "Ġdifference": 7090,
      "nu": 7091,
      "efe": 7092,
      "SPLAY": 7093,
      ")}": 7094,
      "Ġconnected": 7095,
      "ĠDNS": 7096,
      "Ġwebpage": 7097,
      "LC": 7098,
      "STACK": 7099,
      "Ġwerden": 7100,
      "Ġfatal": 7101,
      "envvar": 7102,
      "Ġreceive": 7103,
      "OPENSSL": 7104,
      "structlibfreehand": 7105,
      "hs": 7106,
      "libnet": 7107,
      "ado": 7108,
      "FHParser": 7109,
      "Ġ),": 7110,
      "Ġstores": 7111,
      "2023": 7112,
      "HOST": 7113,
      "Ġ---": 7114,
      "Ġcurve": 7115,
      "ensitive": 7116,
      "Ġbelong": 7117,
      "ells": 7118,
      "RENT": 7119,
      "ordered": 7120,
      "iew": 7121,
      "Ġ}</": 7122,
      "named": 7123,
      "alues": 7124,
      "provided": 7125,
      "Simple": 7126,
      "Ġchecked": 7127,
      "subsection": 7128,
      "REQUEST": 7129,
      "LI": 7130,
      "Ġ23": 7131,
      "Num": 7132,
      "Ġsil": 7133,
      "aging": 7134,
      "ecc": 7135,
      "ĠAnd": 7136,
      "Ġsave": 7137,
      "irewall": 7138,
      "Buil": 7139,
      "ĠEN": 7140,
      "ji": 7141,
      "lik": 7142,
      "Rectangle": 7143,
      "ids": 7144,
      "Ġdesired": 7145,
      "ĠNetpbm": 7146,
      "Ġtrust": 7147,
      "ws": 7148,
      "det": 7149,
      "KEM": 7150,
      "Ġdetermined": 7151,
      "vidia": 7152,
      "Ġspaces": 7153,
      "theme": 7154,
      "049": 7155,
      "408": 7156,
      "Ġreferenced": 7157,
      "Ġcompatible": 7158,
      "Ġsubrout": 7159,
      "Ġmodification": 7160,
      "037": 7161,
      "PAD": 7162,
      "Ġsending": 7163,
      "Ġgenerally": 7164,
      "=\\": 7165,
      "SESSION": 7166,
      "Unix": 7167,
      "dtd": 7168,
      "plugin": 7169,
      "rece": 7170,
      "Ġschema": 7171,
      "BAD": 7172,
      "rfc": 7173,
      "uploader": 7174,
      "textblock": 7175,
      "Any": 7176,
      "else": 7177,
      "Ġpool": 7178,
      "blocking": 7179,
      "SubGroup": 7180,
      "eature": 7181,
      "Ġmenu": 7182,
      "ĠAES": 7183,
      "167": 7184,
      "Dir": 7185,
      "Ġsegment": 7186,
      "ĠQUIC": 7187,
      "depth": 7188,
      "Ġsw": 7189,
      "eek": 7190,
      "response": 7191,
      "Ġmedia": 7192,
      "ĠEL": 7193,
      "Ġpatch": 7194,
      "SUP": 7195,
      "ĠInit": 7196,
      "dby": 7197,
      "ParsingState": 7198,
      "Ġssl": 7199,
      "utor": 7200,
      "aaf": 7201,
      "STD": 7202,
      "Is": 7203,
      "Ġsizes": 7204,
      "aac": 7205,
      "KeyFile": 7206,
      "158": 7207,
      "198": 7208,
      "150": 7209,
      "Ġmanagement": 7210,
      "directories": 7211,
      "Ġdynamic": 7212,
      "ALSE": 7213,
      "317": 7214,
      "headers": 7215,
      "libraries": 7216,
      "Ġupon": 7217,
      "Meta": 7218,
      "orld": 7219,
      "Ġsched": 7220,
      "ĠNVIDIA": 7221,
      "times": 7222,
      "ĠPROFESSION": 7223,
      "connections": 7224,
      "apps": 7225,
      "ONLY": 7226,
      "025": 7227,
      "Ġ22": 7228,
      "Ġissues": 7229,
      "earch": 7230,
      "sd": 7231,
      "atory": 7232,
      "labelle": 7233,
      "018": 7234,
      "ARY": 7235,
      "Ġpropq": 7236,
      "labelledby": 7237,
      "imit": 7238,
      "Ġindicated": 7239,
      "Ġthough": 7240,
      "ĠAltern": 7241,
      "Escape": 7242,
      "Ġreuse": 7243,
      "Ġmultip": 7244,
      "libc": 7245,
      "ĠAV": 7246,
      "028": 7247,
      "vertical": 7248,
      ")},": 7249,
      "Me": 7250,
      "ĠMay": 7251,
      "Ġpreced": 7252,
      "dlp": 7253,
      "Ġsear": 7254,
      "afa": 7255,
      "foc": 7256,
      "Compat": 7257,
      "\">$": 7258,
      "ului": 7259,
      "CClosure": 7260,
      "ĠKeyword": 7261,
      "vas": 7262,
      "_*": 7263,
      "Ġlinked": 7264,
      "185": 7265,
      "306": 7266,
      "334": 7267,
      "gaa": 7268,
      "keywordflow": 7269,
      "ĠApplications": 7270,
      "****************": 7271,
      "Ġdetected": 7272,
      "ADDR": 7273,
      "Ġwrapper": 7274,
      "XMLParserBase": 7275,
      "Ġ\"__": 7276,
      "Ġenables": 7277,
      "enabled": 7278,
      "Ġhostname": 7279,
      "lli": 7280,
      "fftw": 7281,
      "activ": 7282,
      "320": 7283,
      "Ġrepresenting": 7284,
      "=(": 7285,
      "847": 7286,
      "Pool": 7287,
      "ully": 7288,
      "299": 7289,
      "DD": 7290,
      "DBusConnection": 7291,
      "Ġrequirements": 7292,
      "srv": 7293,
      "556": 7294,
      "Ġoften": 7295,
      "Ġpthread": 7296,
      "memTemplItem": 7297,
      "Ġexceed": 7298,
      "Ġdigits": 7299,
      "dantic": 7300,
      "Ġsio": 7301,
      "ament": 7302,
      "ĠSVr": 7303,
      "Ġprecision": 7304,
      "extended": 7305,
      "qp": 7306,
      "034": 7307,
      "RVNGHTML": 7308,
      "Drive": 7309,
      "Ġoct": 7310,
      "ĠCurrent": 7311,
      ")/": 7312,
      "Valid": 7313,
      "Ġhome": 7314,
      "ecause": 7315,
      "ĠGPL": 7316,
      "RVNGString": 7317,
      "unmount": 7318,
      "Ġexec": 7319,
      "%;": 7320,
      "Ġsamples": 7321,
      "ĠControl": 7322,
      "Ġscroll": 7323,
      "Out": 7324,
      "Ġhaving": 7325,
      "Ġcolumns": 7326,
      "-+-+-+-+": 7327,
      "Ġconstants": 7328,
      "MISSIONS": 7329,
      "sequence": 7330,
      "184": 7331,
      "ience": 7332,
      "Ġbottom": 7333,
      "327": 7334,
      "Ġlibctx": 7335,
      "Ġcontained": 7336,
      "Prefix": 7337,
      "za": 7338,
      "Ġ50": 7339,
      "Bus": 7340,
      "}\"": 7341,
      "Ġgives": 7342,
      "MSearch": 7343,
      "GMT": 7344,
      "begin": 7345,
      "lict": 7346,
      "647": 7347,
      "Ġdot": 7348,
      "ContentParsingState": 7349,
      "308": 7350,
      "ĠTime": 7351,
      "ĠStart": 7352,
      "subject": 7353,
      "Ġ></": 7354,
      "ĠOne": 7355,
      "Ġopj": 7356,
      "Ġtyping": 7357,
      "Ġprotection": 7358,
      "Ġtables": 7359,
      "origin": 7360,
      "366": 7361,
      "argv": 7362,
      "152": 7363,
      "544": 7364,
      "ĠfiÈĻ": 7365,
      "608": 7366,
      "It": 7367,
      "icast": 7368,
      "=[": 7369,
      "dbd": 7370,
      "Ġlegacy": 7371,
      ">--": 7372,
      "Ġutil": 7373,
      "ifications": 7374,
      "tcp": 7375,
      "ffc": 7376,
      "tre": 7377,
      "Ġ'.": 7378,
      "044": 7379,
      "Ġhexa": 7380,
      "174": 7381,
      "THREAD": 7382,
      "ntp": 7383,
      "999": 7384,
      "classlibpagemaker": 7385,
      "Ġprints": 7386,
      "keydown": 7387,
      "391": 7388,
      "865": 7389,
      "Ġlinker": 7390,
      "Ġcreation": 7391,
      "CHAN": 7392,
      "\\^(\\|)\",": 7393,
      "Ġreserved": 7394,
      "adcast": 7395,
      "348": 7396,
      "aling": 7397,
      "also": 7398,
      "Ġplan": 7399,
      "Ġservers": 7400,
      "Ġanything": 7401,
      "277": 7402,
      "Ġiv": 7403,
      "CCESS": 7404,
      "Ġsv": 7405,
      "Ġisn": 7406,
      "Ġearlier": 7407,
      "isk": 7408,
      "Ġnet": 7409,
      "ĠERRORS": 7410,
      "NONE": 7411,
      "Ġanv": 7412,
      "Ġformatting": 7413,
      "black": 7414,
      "036": 7415,
      "fac": 7416,
      "VSDXMLParserBase": 7417,
      "Ġskip": 7418,
      "Quick": 7419,
      "ppout": 7420,
      "ĠGit": 7421,
      "ĠLibrary": 7422,
      "Ġomitted": 7423,
      "ĠBSD": 7424,
      "expected": 7425,
      "final": 7426,
      "author": 7427,
      "mmon": 7428,
      "=/": 7429,
      "Ġremaining": 7430,
      "ffd": 7431,
      "PROC": 7432,
      "ono": 7433,
      "Ġfac": 7434,
      "native": 7435,
      "Ġpip": 7436,
      "Ġidx": 7437,
      "backlink": 7438,
      "typ": 7439,
      "Ġnor": 7440,
      "Ġannot": 7441,
      "inv": 7442,
      "ĠTR": 7443,
      "296": 7444,
      "duct": 7445,
      "ands": 7446,
      "Ġissuer": 7447,
      "cast": 7448,
      "142": 7449,
      "Ġapplies": 7450,
      "environment": 7451,
      "DBusMessage": 7452,
      "ĠâĢĶ": 7453,
      "KET": 7454,
      "FL": 7455,
      "emu": 7456,
      "Ġexpansion": 7457,
      "Ġinstructions": 7458,
      "edf": 7459,
      "Ġdescriptors": 7460,
      "Bit": 7461,
      "Ġtraverse": 7462,
      "ĠsearchBox": 7463,
      "305": 7464,
      "ĠPage": 7465,
      "verter": 7466,
      "Ġcomplex": 7467,
      "!==": 7468,
      "vol": 7469,
      "tran": 7470,
      "dout": 7471,
      "Ġrelevant": 7472,
      "Ġredis": 7473,
      "678": 7474,
      "Video": 7475,
      "leg": 7476,
      "Ġnu": 7477,
      "322": 7478,
      "Record": 7479,
      "EXTENSIONS": 7480,
      "Ġsist": 7481,
      "binary": 7482,
      "Ġ2025": 7483,
      "Ġcompressed": 7484,
      "397": 7485,
      "Section": 7486,
      "ena": 7487,
      "aly": 7488,
      "ĠESYS": 7489,
      "istry": 7490,
      "ĠĠĠĠĠĠĠĠĠĠĠĠĠĠĠĠĠĠ": 7491,
      "Child": 7492,
      "Ġinterp": 7493,
      "fav": 7494,
      "mpri": 7495,
      "WARN": 7496,
      "Ġmedium": 7497,
      "Ġmeta": 7498,
      "builtin": 7499,
      "gboolean": 7500,
      "Ġoverri": 7501,
      "326": 7502,
      "TOP": 7503,
      "324": 7504,
      "Parse": 7505,
      "Ġmit": 7506,
      "\\|.\\|.": 7507,
      "though": 7508,
      "CTET": 7509,
      "Ġstatement": 7510,
      "Ġ...\",\"": 7511,
      "osed": 7512,
      "Ġpartition": 7513,
      "Ġengine": 7514,
      "]-": 7515,
      "information": 7516,
      "RUN": 7517,
      "Geometry": 7518,
      "919": 7519,
      "ran": 7520,
      "\"><!--": 7521,
      "Ġencoder": 7522,
      "IMPORTED": 7523,
      "POSE": 7524,
      "Ġpairs": 7525,
      "fmt": 7526,
      "propq": 7527,
      "Contents": 7528,
      "Back": 7529,
      "Bookmark": 7530,
      "Ġrepresented": 7531,
      "Entry": 7532,
      "sage": 7533,
      "vs": 7534,
      "Storage": 7535,
      "Ġthings": 7536,
      "BAG": 7537,
      "sel": 7538,
      "Ġresolution": 7539,
      "compatible": 7540,
      "CPack": 7541,
      "orizontal": 7542,
      "dp": 7543,
      "Ġdependency": 7544,
      "Ġask": 7545,
      "Ġkwargs": 7546,
      "UBLE": 7547,
      "vars": 7548,
      "VM": 7549,
      "bro": 7550,
      "ĠSign": 7551,
      "gae": 7552,
      "SUCCESS": 7553,
      "Ġnic": 7554,
      "ROW": 7555,
      "eff": 7556,
      "}{": 7557,
      "\\|_": 7558,
      "such": 7559,
      "rele": 7560,
      "029": 7561,
      "Model": 7562,
      "Ġwhitespace": 7563,
      "Height": 7564,
      "284": 7565,
      "andatory": 7566,
      "REG": 7567,
      "2020": 7568,
      "Call": 7569,
      "Ġou": 7570,
      "Ġdim": 7571,
      "compressed": 7572,
      "Ġcomplet": 7573,
      "Ġcellpadding": 7574,
      "BookmarkFile": 7575,
      "Ġfy": 7576,
      "Ġescap": 7577,
      "Ġpower": 7578,
      "Ġcellspacing": 7579,
      "La": 7580,
      "Ġregion": 7581,
      "factor": 7582,
      ">)/": 7583,
      "Ġsplit": 7584,
      "livery": 7585,
      "ĠFrom": 7586,
      "Cre": 7587,
      "Ġ255": 7588,
      "CONTEXT": 7589,
      "Ġvisible": 7590,
      "FIC": 7591,
      "Task": 7592,
      "ĠSUB": 7593,
      "149": 7594,
      "record": 7595,
      ").</": 7596,
      "ERES": 7597,
      "gaf": 7598,
      "machine": 7599,
      "ĠPER": 7600,
      "defs": 7601,
      "Ġkind": 7602,
      "________": 7603,
      "job": 7604,
      "ĠNET": 7605,
      "258": 7606,
      "Ġembedded": 7607,
      "SAFEBAG": 7608,
      "Ġ\"ðŁ": 7609,
      "ambda": 7610,
      "soft": 7611,
      "269": 7612,
      "ĠMacro": 7613,
      "logs": 7614,
      "Count": 7615,
      "Ġdefinitions": 7616,
      "Network": 7617,
      "ming": 7618,
      "369": 7619,
      "Ġcompilation": 7620,
      "ho": 7621,
      "Ġsaf": 7622,
      "Ġthreshold": 7623,
      "ĠCol": 7624,
      "eller": 7625,
      "loaded": 7626,
      "Ġrender": 7627,
      "monitor": 7628,
      "Ġpygments": 7629,
      "Ġhexadecimal": 7630,
      "OA": 7631,
      "Ġeas": 7632,
      "Ġscale": 7633,
      "666": 7634,
      "282": 7635,
      "EL": 7636,
      "Ġcommun": 7637,
      "FRAME": 7638,
      "Var": 7639,
      "557": 7640,
      "Ġproperly": 7641,
      "arily": 7642,
      "MGMT": 7643,
      "Ġsucceed": 7644,
      "709": 7645,
      "Ġtokens": 7646,
      "Internal": 7647,
      "Ġtesting": 7648,
      "179": 7649,
      "phr": 7650,
      "windows": 7651,
      "MODULE": 7652,
      "ANY": 7653,
      "hook": 7654,
      "Ġdecoder": 7655,
      "atively": 7656,
      "ables": 7657,
      "\">;</": 7658,
      "ĠVariables": 7659,
      "/\"": 7660,
      "KNO": 7661,
      "assign": 7662,
      "Ġglob": 7663,
      "Ġ26": 7664,
      "574": 7665,
      "uc": 7666,
      "Python": 7667,
      "fed": 7668,
      "IND": 7669,
      "Ġpermission": 7670,
      "Ġtags": 7671,
      "`_": 7672,
      "Ġvalidation": 7673,
      "ynamically": 7674,
      "Ġslk": 7675,
      "Oper": 7676,
      "ĠSD": 7677,
      "Ġmove": 7678,
      "Ġadding": 7679,
      "Ġmk": 7680,
      "penden": 7681,
      "Ġreleased": 7682,
      "difi": 7683,
      "perimental": 7684,
      "Enum": 7685,
      "ĠWAR": 7686,
      "COLOR": 7687,
      "metic": 7688,
      "ayout": 7689,
      "389": 7690,
      "Ġcompress": 7691,
      "PUBLIC": 7692,
      "Ġsecret": 7693,
      "lour": 7694,
      "ifies": 7695,
      "Ġbutton": 7696,
      "leave": 7697,
      "\">=</": 7698,
      "Ġpipe": 7699,
      "500": 7700,
      "448": 7701,
      "\"))": 7702,
      "Ġpara": 7703,
      "orge": 7704,
      "546": 7705,
      "encoder": 7706,
      "()[": 7707,
      "documentation": 7708,
      "ĠEd": 7709,
      "ĠVIR": 7710,
      "Ġdownload": 7711,
      "406": 7712,
      "Ġleading": 7713,
      "ĠCLASS": 7714,
      "exists": 7715,
      "ĠWARRAN": 7716,
      "Ed": 7717,
      "Ġfast": 7718,
      "131": 7719,
      "INTEGER": 7720,
      "cessed": 7721,
      "885": 7722,
      "FUNCTIONS": 7723,
      "Ġforms": 7724,
      "radius": 7725,
      "---": 7726,
      "FAIL": 7727,
      "UNT": 7728,
      "Ġvisit": 7729,
      "Ġsetup": 7730,
      "227": 7731,
      "ĠXHTML": 7732,
      "Driver": 7733,
      "Greek": 7734,
      "Ġrest": 7735,
      "059": 7736,
      "CONNECT": 7737,
      "Ġbas": 7738,
      "unit": 7739,
      "Au": 7740,
      "ibly": 7741,
      "ARK": 7742,
      "Ġwrong": 7743,
      "ANCE": 7744,
      "URPOSE": 7745,
      "curses": 7746,
      "relative": 7747,
      "\">~": 7748,
      "Ġls": 7749,
      "Ġlookup": 7750,
      "aneous": 7751,
      "DateTime": 7752,
      "lc": 7753,
      "cluding": 7754,
      "Ġmerge": 7755,
      "Ġ<<": 7756,
      "LOB": 7757,
      "Ġtemporary": 7758,
      "166": 7759,
      "ato": 7760,
      "stdout": 7761,
      "Ġhel": 7762,
      "Ġlimited": 7763,
      "Remove": 7764,
      "idx": 7765,
      "CharacterGroup": 7766,
      "043": 7767,
      "669": 7768,
      "Ġsignificant": 7769,
      "?\"": 7770,
      "Sequence": 7771,
      "ENCRYPT": 7772,
      "dash": 7773,
      "'/": 7774,
      "Äĩ": 7775,
      "hex": 7776,
      "REQUIRED": 7777,
      "ipt": 7778,
      "Monitor": 7779,
      "RVNGSVG": 7780,
      "agent": 7781,
      "ĠPlease": 7782,
      "206": 7783,
      "Ġdeleted": 7784,
      "178": 7785,
      "Ġpathname": 7786,
      "FILES": 7787,
      "require": 7788,
      "udit": 7789,
      "Ġfixes": 7790,
      "radient": 7791,
      "ĠAT": 7792,
      "ĠLO": 7793,
      "dot": 7794,
      "Ġblack": 7795,
      "Ġfooter": 7796,
      "Ġarchitecture": 7797,
      "unicode": 7798,
      "amma": 7799,
      "Ġtransport": 7800,
      "Cell": 7801,
      "Ġpurposes": 7802,
      "Gener": 7803,
      "Ġmarked": 7804,
      "ascii": 7805,
      "Ġgenerates": 7806,
      "ĠDie": 7807,
      "EXAMPLES": 7808,
      "Ġnpm": 7809,
      "Ġrasqal": 7810,
      "assertion": 7811,
      "leep": 7812,
      "encryption": 7813,
      "weak": 7814,
      "merge": 7815,
      "OFF": 7816,
      "ĠISS": 7817,
      "130": 7818,
      "Ġhandles": 7819,
      "Ġinterpret": 7820,
      "Ġconfigur": 7821,
      "Ġtell": 7822,
      "ĠSTR": 7823,
      "ContextBase": 7824,
      "Ġty": 7825,
      "starts": 7826,
      "FLOW": 7827,
      "namespaces": 7828,
      "Ġhex": 7829,
      "Widget": 7830,
      "Ġcryptograph": 7831,
      "Ġuv": 7832,
      "ayer": 7833,
      "pip": 7834,
      "extension": 7835,
      "Query": 7836,
      "Ġgood": 7837,
      "home": 7838,
      "ĠContent": 7839,
      "ĠAUTHORS": 7840,
      "141": 7841,
      "curve": 7842,
      "Called": 7843,
      "vp": 7844,
      "fcc": 7845,
      "Ġinstallation": 7846,
      "Ġ\":": 7847,
      "SKIP": 7848,
      "Ġfall": 7849,
      "Ġfamily": 7850,
      "POINTS": 7851,
      "itting": 7852,
      "Changed": 7853,
      "DigestInit": 7854,
      "NETSCAPE": 7855,
      "ipped": 7856,
      "lan": 7857,
      "inja": 7858,
      "IMIT": 7859,
      "unds": 7860,
      "]*": 7861,
      "ONG": 7862,
      "transitional": 7863,
      "AUX": 7864,
      "lexer": 7865,
      "Ġdetail": 7866,
      "Ġseek": 7867,
      "ĠAPIs": 7868,
      "ctype": 7869,
      "ordinate": 7870,
      "decrypt": 7871,
      "Ġthird": 7872,
      "Ġ21": 7873,
      "ĠĠĠĠĠĠĠĠĠĠĠĠĠĠĠĠĠĠĠĠĠĠ": 7874,
      "more": 7875,
      "Ġoverflow": 7876,
      "ĠGObject": 7877,
      "acy": 7878,
      "FIER": 7879,
      "QUIC": 7880,
      "Ġmaking": 7881,
      "Chunk": 7882,
      "Ġmodifier": 7883,
      "ats": 7884,
      "embers": 7885,
      "keyboard": 7886,
      "matic": 7887,
      "libwpd": 7888,
      "ĠCopy": 7889,
      "Ġprobably": 7890,
      "ĠMA": 7891,
      "Ġspell": 7892,
      "387": 7893,
      "Ã¼r": 7894,
      "dee": 7895,
      "ĠMat": 7896,
      "Ġbuilding": 7897,
      "AMPLE": 7898,
      "Ġconsole": 7899,
      "154": 7900,
      "Ġgl": 7901,
      "Ġfich": 7902,
      "Ġvon": 7903,
      "ittle": 7904,
      "Ġshows": 7905,
      "gpointer": 7906,
      "ĠDIST": 7907,
      "pixel": 7908,
      "ĠSimilar": 7909,
      "Implements": 7910,
      "2000": 7911,
      "GNU": 7912,
      "atomic": 7913,
      "Ġdraw": 7914,
      "Short": 7915,
      "PT": 7916,
      "When": 7917,
      "ĠMet": 7918,
      "results": 7919,
      "ava": 7920,
      "SL": 7921,
      "Ġholds": 7922,
      "Ġ(_": 7923,
      "definitions": 7924,
      "alg": 7925,
      "chn": 7926,
      "Ġprogress": 7927,
      "lectron": 7928,
      "Ġprocedures": 7929,
      "Ġ\\*[": 7930,
      "162": 7931,
      ";;": 7932,
      "Ġruns": 7933,
      "Ġfront": 7934,
      "agram": 7935,
      "Soft": 7936,
      "ysical": 7937,
      "security": 7938,
      "phrase": 7939,
      "osen": 7940,
      "300": 7941,
      "Ġoptionally": 7942,
      "VSDX": 7943,
      "'+": 7944,
      "<<": 7945,
      "mno": 7946,
      "fff": 7947,
      "ĠProgrammer": 7948,
      "Ġbindings": 7949,
      "Ġparam": 7950,
      "Ġacross": 7951,
      "Bytes": 7952,
      "Binary": 7953,
      "tar": 7954,
      "302": 7955,
      "ARG": 7956,
      "Ġcrash": 7957,
      "ĠGeForce": 7958,
      "NAMES": 7959,
      "ĠBE": 7960,
      "645": 7961,
      "676": 7962,
      "\">}</": 7963,
      "Ġdoing": 7964,
      "ĠInformation": 7965,
      "How": 7966,
      "Ġna": 7967,
      "078": 7968,
      "ardless": 7969,
      "Tag": 7970,
      "bundle": 7971,
      "realloc": 7972,
      "otion": 7973,
      "parms": 7974,
      "inherited": 7975,
      "standard": 7976,
      "lists": 7977,
      "Ġlh": 7978,
      "Margin": 7979,
      "MACRO": 7980,
      "Ġ2017": 7981,
      "focus": 7982,
      "cu": 7983,
      "zion": 7984,
      "Ã¢": 7985,
      "ĠÂ": 7986,
      "anded": 7987,
      "Ġfully": 7988,
      "ĠRemove": 7989,
      "ached": 7990,
      "CONST": 7991,
      "Ġretain": 7992,
      "AMING": 7993,
      "aming": 7994,
      "Ġincremented": 7995,
      "ParamSpec": 7996,
      "289": 7997,
      "DecryptInit": 7998,
      "agnostic": 7999,
      "Ġdiffer": 8000,
      "favicon": 8001,
      "148": 8002,
      "transp": 8003,
      "itionally": 8004,
      "generic": 8005,
      "Previous": 8006,
      "Ġpasses": 8007,
      "288": 8008,
      "land": 8009,
      "ĠPath": 8010,
      "648": 8011,
      "PRINT": 8012,
      "354": 8013,
      "Ġupgra": 8014,
      "enn": 8015,
      "cite": 8016,
      "Ġ[.": 8017,
      "Ġshape": 8018,
      "fam": 8019,
      "that": 8020,
      "With": 8021,
      "ENTI": 8022,
      "ĠCode": 8023,
      "take": 8024,
      "665": 8025,
      "FB": 8026,
      "Kind": 8027,
      "pipecmd": 8028,
      "239": 8029,
      "aren": 8030,
      "\">/": 8031,
      "dapt": 8032,
      "assertions": 8033,
      ";,": 8034,
      "Ġur": 8035,
      "hostname": 8036,
      "ications": 8037,
      "PKISI": 8038,
      "457": 8039,
      "Ġinte": 8040,
      "Ġintegr": 8041,
      "globals": 8042,
      "Write": 8043,
      "Ġquant": 8044,
      "available": 8045,
      "codes": 8046,
      "Ġglibc": 8047,
      "CONTENT": 8048,
      "closed": 8049,
      "upt": 8050,
      "170": 8051,
      "Vector": 8052,
      "deca": 8053,
      "896": 8054,
      "Ġmajor": 8055,
      "jquery": 8056,
      "ond": 8057,
      "Ġimportant": 8058,
      "074": 8059,
      "195": 8060,
      "569": 8061,
      "SERVICE": 8062,
      "Resol": 8063,
      "........": 8064,
      "IZED": 8065,
      "kan": 8066,
      "suffix": 8067,
      "ĠDefinition": 8068,
      ">),": 8069,
      "ocket": 8070,
      "random": 8071,
      "Ġfp": 8072,
      "311": 8073,
      "ares": 8074,
      "Frame": 8075,
      "GF": 8076,
      "lap": 8077,
      "nested": 8078,
      "sers": 8079,
      "les": 8080,
      "Ġbg": 8081,
      "ĠBut": 8082,
      "181": 8083,
      "609": 8084,
      "structlibzmf": 8085,
      "MOC": 8086,
      "lyph": 8087,
      "ĠRAND": 8088,
      "software": 8089,
      "CBC": 8090,
      "mapping": 8091,
      "CUDA": 8092,
      "^^^^": 8093,
      "dwt": 8094,
      "Icon": 8095,
      "ational": 8096,
      "dfa": 8097,
      "KEN": 8098,
      "056": 8099,
      "215": 8100,
      "lout": 8101,
      "powerTip": 8102,
      "dm": 8103,
      "wiki": 8104,
      "035": 8105,
      "vered": 8106,
      "Ġcounter": 8107,
      "Ġindependent": 8108,
      "ĠPass": 8109,
      "595": 8110,
      "hether": 8111,
      "fef": 8112,
      "ĠWARN": 8113,
      "EXEC": 8114,
      "ÃŃ": 8115,
      "Information": 8116,
      "TES": 8117,
      "categories": 8118,
      "Ġdynamically": 8119,
      "Ġflow": 8120,
      "ĠPBMAC": 8121,
      "ĠSIGN": 8122,
      "FFIX": 8123,
      "Ġvir": 8124,
      "Ġcups": 8125,
      "ceb": 8126,
      "icondoc": 8127,
      "Ġtrig": 8128,
      "Ġmaintained": 8129,
      "Ġcompare": 8130,
      "erm": 8131,
      "arb": 8132,
      "020": 8133,
      "Ġappend": 8134,
      "Ġpartial": 8135,
      "Ġcollection": 8136,
      "coming": 8137,
      "CAC": 8138,
      "979": 8139,
      "163": 8140,
      "parallel": 8141,
      "Ġderived": 8142,
      "Ġcy": 8143,
      "Ġways": 8144,
      "ĠASI": 8145,
      "ĠBO": 8146,
      "Ġsubstring": 8147,
      "extensions": 8148,
      "definition": 8149,
      "ĠNETSCAPE": 8150,
      "287": 8151,
      "STY": 8152,
      "272": 8153,
      "////////////////": 8154,
      "BC": 8155,
      "ĠRun": 8156,
      "BUGS": 8157,
      "ĠCreated": 8158,
      "forge": 8159,
      "948": 8160,
      "298": 8161,
      "ĠSie": 8162,
      "246": 8163,
      "Ġquality": 8164,
      "\">@": 8165,
      "Schema": 8166,
      "Ġproviders": 8167,
      "Ġtransparent": 8168,
      "IGN": 8169,
      "DigestFinal": 8170,
      "GH": 8171,
      "Ġie": 8172,
      "033": 8173,
      "bbd": 8174,
      "letter": 8175,
      "646": 8176,
      "virConnect": 8177,
      "compact": 8178,
      "Ġproduced": 8179,
      "classO": 8180,
      "snapctl": 8181,
      "ĠCOMP": 8182,
      "tspan": 8183,
      "fast": 8184,
      "buy": 8185,
      "Ġ2001": 8186,
      "symbolic": 8187,
      "produ": 8188,
      "Ġlogger": 8189,
      "ĠLIN": 8190,
      "Ġtrunc": 8191,
      "Ġshowing": 8192,
      "ithmetic": 8193,
      "Ġsaved": 8194,
      "icona": 8195,
      "XMLTree": 8196,
      "309": 8197,
      "Pipeline": 8198,
      "TRUE": 8199,
      "executable": 8200,
      "Offset": 8201,
      "Ġ[{": 8202,
      "pipe": 8203,
      "guide": 8204,
      "Ġprivile": 8205,
      "WRITE": 8206,
      "ĠGu": 8207,
      "Example": 8208,
      "}',": 8209,
      "Ġpat": 8210,
      "Ġdu": 8211,
      "Ġratio": 8212,
      "Ġmonitor": 8213,
      "675": 8214,
      "ĠIssue": 8215,
      "Ġregex": 8216,
      "cpan": 8217,
      "RAW": 8218,
      "xu": 8219,
      "Ġ56": 8220,
      "readed": 8221,
      "Ġnid": 8222,
      "Ġcomma": 8223,
      "ĠPID": 8224,
      "065": 8225,
      "rm": 8226,
      "Defin": 8227,
      "DIV": 8228,
      "xD": 8229,
      "ĠImp": 8230,
      "Max": 8231,
      "ha": 8232,
      "ĠLe": 8233,
      "Ġblocking": 8234,
      "hdlist": 8235,
      "Ġglm": 8236,
      "difiers": 8237,
      "ano": 8238,
      "Ġreceiv": 8239,
      "Ġdistributed": 8240,
      "Ġprinting": 8241,
      "CURS": 8242,
      "ĠAllowed": 8243,
      "Yu": 8244,
      "Ġtranslation": 8245,
      "ĠComment": 8246,
      "ĠCH": 8247,
      "istic": 8248,
      "233": 8249,
      "entries": 8250,
      "regress": 8251,
      "Ġcat": 8252,
      "Constant": 8253,
      "some": 8254,
      "Ġoutputs": 8255,
      "CURRENT": 8256,
      "378": 8257,
      "tabu": 8258,
      "Copy": 8259,
      "376": 8260,
      "paths": 8261,
      "ĠFIPS": 8262,
      "175": 8263,
      "ogle": 8264,
      "576": 8265,
      "400": 8266,
      "Single": 8267,
      "icture": 8268,
      "Ġestab": 8269,
      "istor": 8270,
      "Deta": 8271,
      "PAN": 8272,
      "ĠContributors": 8273,
      "htype": 8274,
      "Exp": 8275,
      "058": 8276,
      "365": 8277,
      "cod": 8278,
      "ĠTLSv": 8279,
      "mor": 8280,
      "Ġplease": 8281,
      "ĠBoth": 8282,
      "ffe": 8283,
      "ĠAli": 8284,
      "SUFFIX": 8285,
      "HOME": 8286,
      "hi": 8287,
      "Pattern": 8288,
      "itical": 8289,
      "663": 8290,
      "Ġattrs": 8291,
      "ullet": 8292,
      "Ġrestrict": 8293,
      "asing": 8294,
      "Ġpayload": 8295,
      "Ġdro": 8296,
      "Ġ00": 8297,
      "Ġearly": 8298,
      "Ġ\\\\*(": 8299,
      "PolygonUtils": 8300,
      "ĠHere": 8301,
      "077": 8302,
      "245": 8303,
      "%%": 8304,
      "DEFIN": 8305,
      "076": 8306,
      "ANT": 8307,
      "CK": 8308,
      "Ġbind": 8309,
      "080": 8310,
      "Ġbecomes": 8311,
      "PBE": 8312,
      "Ġdecoded": 8313,
      "ĠMark": 8314,
      "ĠVer": 8315,
      "Ġarrays": 8316,
      "endian": 8317,
      "eq": 8318,
      "Ġ()</": 8319,
      "165": 8320,
      "368": 8321,
      "Ġfilenames": 8322,
      "Ġattached": 8323,
      "ĠUID": 8324,
      "Ġpreserved": 8325,
      "expand": 8326,
      "Ġrestr": 8327,
      "cdf": 8328,
      "321": 8329,
      "Row": 8330,
      "ĠSec": 8331,
      "ircum": 8332,
      "validate": 8333,
      "dipo": 8334,
      "SINGLE": 8335,
      "START": 8336,
      "Ġreply": 8337,
      "Buf": 8338,
      "'\\\\$": 8339,
      "957": 8340,
      "555": 8341,
      "overflow": 8342,
      "oration": 8343,
      "Ġvers": 8344,
      "ACY": 8345,
      "Convert": 8346,
      "dst": 8347,
      "ymb": 8348,
      "ĠUUID": 8349,
      "Ġreadonly": 8350,
      "'\"'": 8351,
      "2022": 8352,
      "enumerate": 8353,
      "ĠTherefore": 8354,
      "Ġcross": 8355,
      "ĠMTO": 8356,
      "Ġ---------------------------------": 8357,
      "Ġ'\\\\*(": 8358,
      "courtes": 8359,
      "Ġsubroutine": 8360,
      "''\\\\$": 8361,
      "graphics": 8362,
      "Ġhuman": 8363,
      "AES": 8364,
      "bec": 8365,
      "structfield": 8366,
      "878": 8367,
      "sourceforge": 8368,
      "courtesan": 8369,
      "VI": 8370,
      "Ġang": 8371,
      "dipodi": 8372,
      "MAP": 8373,
      "042": 8374,
      "063": 8375,
      "898": 8376,
      "Ġconvent": 8377,
      "...]": 8378,
      "threads": 8379,
      "Ġ[\"": 8380,
      "ĠĠĠĠĠĠĠĠĠĠĠĠĠĠĠĠĠĠĠĠĠ": 8381,
      "phinx": 8382,
      "Ġhandshake": 8383,
      "<_": 8384,
      "PS": 8385,
      "cbf": 8386,
      "396": 8387,
      "eab": 8388,
      "0099": 8389,
      "blockquote": 8390,
      "vision": 8391,
      "Ġproc": 8392,
      "385": 8393,
      "Ġautomatic": 8394,
      "Compatible": 8395,
      "ULATED": 8396,
      "374": 8397,
      "946": 8398,
      "OAEP": 8399,
      "Ġlimits": 8400,
      "Footer": 8401,
      "came": 8402,
      "uess": 8403,
      "Ġlatter": 8404,
      "Ġ\"[": 8405,
      "task": 8406,
      "}/": 8407,
      "uni": 8408,
      "Encoding": 8409,
      "agnostics": 8410,
      "Ã§Ã£o": 8411,
      "ĠPAR": 8412,
      "ĠOptional": 8413,
      "abs": 8414,
      "amera": 8415,
      "QL": 8416,
      "cos": 8417,
      "Ġunspecified": 8418,
      "RGB": 8419,
      "JUST": 8420,
      "283": 8421,
      "Ġsummary": 8422,
      "doct": 8423,
      "ENABLE": 8424,
      "enclosing": 8425,
      "Ġsender": 8426,
      "Ġsockets": 8427,
      "Ġtmp": 8428,
      "dden": 8429,
      "275": 8430,
      "Ġdetermines": 8431,
      "Ġforward": 8432,
      "171": 8433,
      "CALCULATED": 8434,
      "Mask": 8435,
      "887": 8436,
      "VIRON": 8437,
      "italize": 8438,
      "]=": 8439,
      "step": 8440,
      "240": 8441,
      "877": 8442,
      "seconds": 8443,
      "Ġdst": 8444,
      "eac": 8445,
      "restrict": 8446,
      "19464": 8447,
      "entially": 8448,
      "Ġour": 8449,
      "ĠBlock": 8450,
      "Initial": 8451,
      "2018": 8452,
      "ddd": 8453,
      "5419464": 8454,
      "projectname": 8455,
      "FICATE": 8456,
      "ĠGenerator": 8457,
      "changes": 8458,
      "Ġzu": 8459,
      "VSDOptional": 8460,
      ".&": 8461,
      "ĠFin": 8462,
      ">\\": 8463,
      "gid": 8464,
      "250": 8465,
      "Ġdetection": 8466,
      "ĠPy": 8467,
      "ĠXt": 8468,
      "674": 8469,
      "Ġcorresponds": 8470,
      "295": 8471,
      "warn": 8472,
      "suite": 8473,
      "always": 8474,
      "Ġencoun": 8475,
      "183": 8476,
      "[^/": 8477,
      "Ġincorrect": 8478,
      "Ġdirection": 8479,
      "View": 8480,
      "259": 8481,
      "Ġappended": 8482,
      "')),": 8483,
      "SW": 8484,
      "bef": 8485,
      "reverse": 8486,
      "Ġchosen": 8487,
      "ĠMult": 8488,
      "bdb": 8489,
      "VEL": 8490,
      "BACK": 8491,
      "066": 8492,
      "244": 8493,
      "original": 8494,
      "Ġhwloc": 8495,
      "PDB": 8496,
      "history": 8497,
      "bce": 8498,
      "watch": 8499,
      "ining": 8500,
      "mdash": 8501,
      "Ġcrypto": 8502,
      "hints": 8503,
      "Ġrefers": 8504,
      "Ġcolon": 8505,
      "Ġchanging": 8506,
      "Description": 8507,
      "ĠDEV": 8508,
      "Ġprimary": 8509,
      "Ġdisables": 8510,
      "ANG": 8511,
      "bdf": 8512,
      "Ġimplements": 8513,
      "Ġdecryption": 8514,
      "ĠCurrently": 8515,
      "ĠUsed": 8516,
      "plain": 8517,
      "coreutils": 8518,
      "cff": 8519,
      "ocus": 8520,
      "single": 8521,
      "Ġproduces": 8522,
      "584": 8523,
      "Mark": 8524,
      "868": 8525,
      "structlibcdr": 8526,
      "252": 8527,
      "Ġclip": 8528,
      "Ġpanel": 8529,
      "hil": 8530,
      "057": 8531,
      "Ġreasons": 8532,
      "ĠMT": 8533,
      "ADD": 8534,
      ">()</": 8535,
      "ĠMembers": 8536,
      "PBM": 8537,
      "ĠRelease": 8538,
      "346": 8539,
      "zz": 8540,
      "390": 8541,
      "BASE": 8542,
      "Ġnoexcept": 8543,
      "361": 8544,
      "genex": 8545,
      "[-": 8546,
      "exe": 8547,
      "KNOWN": 8548,
      "Ġalpha": 8549,
      "Ġsistem": 8550,
      "attrs": 8551,
      "Package": 8552,
      "rules": 8553,
      "'{": 8554,
      "422": 8555,
      "ains": 8556,
      "858": 8557,
      "imation": 8558,
      "Ġsignals": 8559,
      "Ġrd": 8560,
      "649": 8561,
      "\"]],\"": 8562,
      "WAIT": 8563,
      "Ġlibcurl": 8564,
      "CipherPipeline": 8565,
      "977": 8566,
      "2021": 8567,
      "fdf": 8568,
      "objects": 8569,
      "CAP": 8570,
      "cv": 8571,
      "Ġ[],": 8572,
      "events": 8573,
      "GRAM": 8574,
      "ĠLE": 8575,
      "bfd": 8576,
      "Ġconverts": 8577,
      "warnings": 8578,
      "iod": 8579,
      "Ġreleases": 8580,
      "Ġrestriction": 8581,
      "Ġpor": 8582,
      "370": 8583,
      "660": 8584,
      "Ġstats": 8585,
      "Ġeffective": 8586,
      "Ġ1000": 8587,
      "olf": 8588,
      "Ġexpo": 8589,
      "RESPON": 8590,
      "VIRONMENT": 8591,
      "filesystem": 8592,
      "roma": 8593,
      "titlearea": 8594,
      "ĠDIRECT": 8595,
      "ĠpÃ¥": 8596,
      "vb": 8597,
      "Ġaus": 8598,
      "ĠAttribute": 8599,
      "Form": 8600,
      ")))": 8601,
      "ĠSH": 8602,
      "packed": 8603,
      "projectalign": 8604,
      "ĠChanges": 8605,
      "707": 8606,
      "ebug": 8607,
      "compiler": 8608,
      "TABILITY": 8609,
      "Ġloading": 8610,
      "Ġauthentic": 8611,
      "AsyncResult": 8612,
      "metric": 8613,
      "ĠNE": 8614,
      "Rece": 8615,
      "tagName": 8616,
      "Ġptr": 8617,
      "Para": 8618,
      "zmq": 8619,
      "Relation": 8620,
      "Ġsudoers": 8621,
      "tableblock": 8622,
      "cbe": 8623,
      "Ġmai": 8624,
      "disconnect": 8625,
      "Ġfprintf": 8626,
      "fieldname": 8627,
      "xA": 8628,
      "MMMM": 8629,
      "Ġicon": 8630,
      "EXIT": 8631,
      "Ġaliases": 8632,
      "Ġpush": 8633,
      "Unicode": 8634,
      "Ġprefixed": 8635,
      "Ġpending": 8636,
      "clock": 8637,
      ")\">[": 8638,
      "annot": 8639,
      "ety": 8640,
      "Ġcal": 8641,
      "182": 8642,
      "lis": 8643,
      "Core": 8644,
      "Resource": 8645,
      "extractor": 8646,
      "big": 8647,
      "spawn": 8648,
      "Ġ27": 8649,
      "ĠpathPtr": 8650,
      "312": 8651,
      "ITI": 8652,
      "099": 8653,
      "383": 8654,
      "doctools": 8655,
      "lsh": 8656,
      "Ġconflict": 8657,
      "Ġduplicate": 8658,
      "chunk": 8659,
      "Ġtrailing": 8660,
      "Ġhappens": 8661,
      "ĠCurses": 8662,
      "LEMENT": 8663,
      "dynsections": 8664,
      "Ġmaster": 8665,
      "ĠDon": 8666,
      "ffebe": 8667,
      "Ġ2002": 8668,
      "eben": 8669,
      "248": 8670,
      "242": 8671,
      "abling": 8672,
      "echo": 8673,
      "Ġfrequency": 8674,
      "Ġbackward": 8675,
      "Ġupdates": 8676,
      "RT": 8677,
      "abort": 8678,
      "CLASS": 8679,
      "398": 8680,
      "874": 8681,
      "devid": 8682,
      "fielddoc": 8683,
      "Ġdecoding": 8684,
      "Ġedge": 8685,
      "3862": 8686,
      "315": 8687,
      "045": 8688,
      "ĠArgument": 8689,
      "ĠMost": 8690,
      "Ġrights": 8691,
      "12017": 8692,
      "sat": 8693,
      "decoder": 8694,
      "EXP": 8695,
      "ipv": 8696,
      "542": 8697,
      "Port": 8698,
      "990": 8699,
      "Ġdefaultp": 8700,
      "ERS": 8701,
      "ĠBecause": 8702,
      "228": 8703,
      "white": 8704,
      "hat": 8705,
      "484": 8706,
      "Ġcenter": 8707,
      "direction": 8708,
      "ĠKit": 8709,
      "Ġeller": 8710,
      "ĠModule": 8711,
      ":**": 8712,
      "Conf": 8713,
      "ĠANY": 8714,
      "Ã³w": 8715,
      "/(?": 8716,
      "Ġoperate": 8717,
      "ĠLes": 8718,
      "247": 8719,
      "Ġpercent": 8720,
      "ashes": 8721,
      "pology": 8722,
      "CDRParser": 8723,
      "ootnote": 8724,
      "ned": 8725,
      "568": 8726,
      "Lang": 8727,
      "nofollow": 8728,
      "VARI": 8729,
      "+\"": 8730,
      "ĠInstead": 8731,
      "each": 8732,
      "detect": 8733,
      ";.": 8734,
      "ĠFri": 8735,
      "Ġyear": 8736,
      "Ġchoose": 8737,
      "FROM": 8738,
      "ĠPunctuation": 8739,
      "osite": 8740,
      "884": 8741,
      "CPU": 8742,
      "ĠStudio": 8743,
      "receive": 8744,
      "EMU": 8745,
      "Ġpreferred": 8746,
      "MATCH": 8747,
      "Ġfs": 8748,
      "342": 8749,
      "AUTOMOC": 8750,
      "BYTES": 8751,
      "926": 8752,
      "fca": 8753,
      "CURSES": 8754,
      "FIE": 8755,
      "Notify": 8756,
      "keep": 8757,
      "anti": 8758,
      "XMLParserContext": 8759,
      "ipientInfo": 8760,
      "YY": 8761,
      "371": 8762,
      "336": 8763,
      "hover": 8764,
      "RESPONSE": 8765,
      "OLD": 8766,
      "*)": 8767,
      "Fix": 8768,
      "bcc": 8769,
      "084": 8770,
      "Ġformatted": 8771,
      "\">{</": 8772,
      "alic": 8773,
      "Ġ1024": 8774,
      "Ġsat": 8775,
      "undef": 8776,
      "545": 8777,
      "292": 8778,
      "bfbe": 8779,
      "-&": 8780,
      "399": 8781,
      "Dis": 8782,
      "ĠdÃ©": 8783,
      "Ġmeasure": 8784,
      "Ġ(),": 8785,
      "Ġgavl": 8786,
      "303": 8787,
      "reserved": 8788,
      "Ġconsists": 8789,
      "[=": 8790,
      "Ġadjust": 8791,
      "ny": 8792,
      "apitalize": 8793,
      "classlibzmf": 8794,
      "Ġraised": 8795,
      "BaseIE": 8796,
      "Ġbygroups": 8797,
      "Sphinx": 8798,
      "quiet": 8799,
      "Ġgchar": 8800,
      "Down": 8801,
      "978": 8802,
      "Timeout": 8803,
      "086": 8804,
      "shutdown": 8805,
      "visible": 8806,
      "Doxygen": 8807,
      "Ġminor": 8808,
      "sphinxsidebarwrapper": 8809,
      "fy": 8810,
      "webpage": 8811,
      "FIELD": 8812,
      "VD": 8813,
      ">'": 8814,
      "960": 8815,
      "314": 8816,
      "bodywrapper": 8817,
      "examples": 8818,
      "172": 8819,
      "Ġhyper": 8820,
      "Ġlibc": 8821,
      "975": 8822,
      "Ġspellcheck": 8823,
      "matches": 8824,
      "547": 8825,
      "Compare": 8826,
      "jpg": 8827,
      "REPORT": 8828,
      "ĠFIL": 8829,
      "documentwrapper": 8830,
      "Ġjournal": 8831,
      "ĠKitware": 8832,
      "cac": 8833,
      "ulator": 8834,
      "098": 8835,
      "STATE": 8836,
      "while": 8837,
      "Ġpod": 8838,
      "ĠEng": 8839,
      "ĠSelect": 8840,
      "startswith": 8841,
      "TID": 8842,
      "ministr": 8843,
      "contentinfo": 8844,
      "PKIP": 8845,
      "Ġautocorrect": 8846,
      "Ġautocapitalize": 8847,
      "352": 8848,
      "Ġoder": 8849,
      "formwrapper": 8850,
      "searchformwrapper": 8851,
      "ENCRYPTEDVALUE": 8852,
      "isation": 8853,
      "869": 8854,
      "069": 8855,
      "IGNO": 8856,
      "MSPUBCollector": 8857,
      "akes": 8858,
      "Ġreplacement": 8859,
      "dab": 8860,
      "early": 8861,
      "GID": 8862,
      "cxx": 8863,
      "Ġpour": 8864,
      "Ġnested": 8865,
      "Ġregardless": 8866,
      "paque": 8867,
      "ĠWhitespace": 8868,
      "embed": 8869,
      "=\"../\">": 8870,
      "ĠIMP": 8871,
      "Ġfilled": 8872,
      "Ġtimer": 8873,
      "acute": 8874,
      "335": 8875,
      "hashchange": 8876,
      "Ġ})();": 8877,
      "FIR": 8878,
      "2017": 8879,
      "Flo": 8880,
      "INVAL": 8881,
      "AAAA": 8882,
      "OnSearch": 8883,
      "Ġbecome": 8884,
      "Ġcallbacks": 8885,
      "utorial": 8886,
      "cce": 8887,
      "wide": 8888,
      "PLAT": 8889,
      "resp": 8890,
      "RSAPrivateKey": 8891,
      "Ġfrees": 8892,
      "GENERALIZED": 8893,
      "Ġmv": 8894,
      "Ġconsu": 8895,
      "257": 8896,
      "GENERALIZEDTIME": 8897,
      "ciphers": 8898,
      "Ġbracket": 8899,
      "ĠVSD": 8900,
      "976": 8901,
      "feb": 8902,
      "Ġoverrides": 8903,
      "mqc": 8904,
      "Ġdrivers": 8905,
      "Ġsodipodi": 8906,
      "268": 8907,
      "Ġrelbar": 8908,
      "YR": 8909,
      "232": 8910,
      "ones": 8911,
      "apply": 8912,
      "ĠSR": 8913,
      "559": 8914,
      "470": 8915,
      "Ġreports": 8916,
      "873": 8917,
      "nn": 8918,
      "290": 8919,
      "1000": 8920,
      "HAND": 8921,
      "Ġquer": 8922,
      "Ġjson": 8923,
      "Ġsalt": 8924,
      ">:</": 8925,
      "515": 8926,
      "Over": 8927,
      "tuple": 8928,
      "600": 8929,
      "219": 8930,
      "lates": 8931,
      "428": 8932,
      "fab": 8933,
      "VERTIC": 8934,
      "Tibetan": 8935,
      "licable": 8936,
      "Ġlinear": 8937,
      "numbered": 8938,
      "\\_\\+": 8939,
      "?://(?:": 8940,
      "GLOB": 8941,
      "sized": 8942,
      "ĠMS": 8943,
      "dcd": 8944,
      "VERTICES": 8945,
      "Ġalignment": 8946,
      "Attr": 8947,
      "NID": 8948,
      "Ġtrusted": 8949,
      "expression": 8950,
      "scope": 8951,
      "Ġsorted": 8952,
      "crt": 8953,
      "################": 8954,
      "resource": 8955,
      "inf": 8956,
      "disp": 8957,
      "edd": 8958,
      "policies": 8959,
      "loading": 8960,
      "lation": 8961,
      "Ġ42": 8962,
      "VSDGeometry": 8963,
      "dark": 8964,
      "Ġbroken": 8965,
      "Detailed": 8966,
      "Mult": 8967,
      "Ġpkey": 8968,
      "pend": 8969,
      "AGES": 8970,
      "algorithm": 8971,
      "394": 8972,
      "Ġcomments": 8973,
      "ĠHREF": 8974,
      "uxer": 8975,
      "BKDF": 8976,
      "Ġcombined": 8977,
      "Ġconstructor": 8978,
      "buff": 8979,
      "Ġsigning": 8980,
      "exceptions": 8981,
      "Ġvim": 8982,
      "549": 8983,
      "Ġ80": 8984,
      "shortcut": 8985,
      "IZE": 8986,
      "cdd": 8987,
      "ĠECDSA": 8988,
      "certs": 8989,
      "llia": 8990,
      "bff": 8991,
      "840": 8992,
      "Specify": 8993,
      "TibetanMap": 8994,
      "SN": 8995,
      "ecdh": 8996,
      "DISPLAY": 8997,
      "Ġsol": 8998,
      "Sets": 8999,
      "861": 9000,
      "PLATFORM": 9001,
      ")):": 9002,
      "allocator": 9003,
      "Pointer": 9004,
      "FN": 9005,
      "rer": 9006,
      "875344": 9007,
      "875344199": 9008,
      "Top": 9009,
      "Theme": 9010,
      "EXTR": 9011,
      "Ġinserted": 9012,
      "gpl": 9013,
      "251": 9014,
      "Ġtransaction": 9015,
      "]{": 9016,
      "cher": 9017,
      "puts": 9018,
      "NUMBER": 9019,
      "bee": 9020,
      "161": 9021,
      "Ġsmaller": 9022,
      "Paged": 9023,
      "Ġlittle": 9024,
      "closure": 9025,
      "Ġag": 9026,
      "Ġok": 9027,
      "ragma": 9028,
      "SoftBook": 9029,
      "238": 9030,
      "atsc": 9031,
      "Ġ'_": 9032,
      "Ġallowing": 9033,
      "RecipientInfo": 9034,
      "Ġphysical": 9035,
      "Graphics": 9036,
      "Ġche": 9037,
      "Ġ2006": 9038,
      "ĠfÃ¼r": 9039,
      "040": 9040,
      "Ġsecure": 9041,
      "OnSearchSelect": 9042,
      "Ġsock": 9043,
      "rw": 9044,
      "Ġreader": 9045,
      "ACTION": 9046,
      "963": 9047,
      "ATIONINFO": 9048,
      "UBLICATIONINFO": 9049,
      "Operation": 9050,
      "PKIPUBLICATIONINFO": 9051,
      "ECP": 9052,
      "uuid": 9053,
      "Ġusername": 9054,
      "ACCUR": 9055,
      "Ġ28": 9056,
      "Ġnonzero": 9057,
      "Ġpseudo": 9058,
      "FromStat": 9059,
      "fec": 9060,
      "anks": 9061,
      "ctor": 9062,
      "592": 9063,
      "dfb": 9064,
      "MSGS": 9065,
      "Ã¤nd": 9066,
      "Ġtracefs": 9067,
      "784": 9068,
      "essions": 9069,
      "gmail": 9070,
      "journal": 9071,
      "Ġbitmap": 9072,
      "veloper": 9073,
      "nvme": 9074,
      "pnm": 9075,
      "Ġce": 9076,
      "ĠFc": 9077,
      "229": 9078,
      "ĠPossible": 9079,
      "drop": 9080,
      "slice": 9081,
      "Ġcb": 9082,
      "tl": 9083,
      "ĠOver": 9084,
      "Det": 9085,
      "VC": 9086,
      "Ver": 9087,
      "fce": 9088,
      "Ġeverything": 9089,
      ">).": 9090,
      "baf": 9091,
      "173": 9092,
      "Ġauf": 9093,
      "MSearchResults": 9094,
      "Ġwho": 9095,
      "verage": 9096,
      "backup": 9097,
      "}'": 9098,
      "atÄĥ": 9099,
      "bound": 9100,
      "00000": 9101,
      "REEK": 9102,
      "Ġarithmetic": 9103,
      "Ġmandatory": 9104,
      "888": 9105,
      "PADDING": 9106,
      "ĠAuto": 9107,
      "Ġstderr": 9108,
      "progress": 9109,
      "varargs": 9110,
      "cae": 9111,
      "Ġstdin": 9112,
      "PUBINFO": 9113,
      "rot": 9114,
      "Ġrot": 9115,
      "768": 9116,
      "vements": 9117,
      "010": 9118,
      "Ġcollect": 9119,
      "printindex": 9120,
      "repr": 9121,
      "SINGLEPUBINFO": 9122,
      "SEARCH": 9123,
      "ĠAss": 9124,
      "022": 9125,
      "424": 9126,
      "UTCT": 9127,
      "cad": 9128,
      "572": 9129,
      "ADJUST": 9130,
      "episode": 9131,
      "GENERATOR": 9132,
      "rem": 9133,
      "Ġklass": 9134,
      "Ġ512": 9135,
      "devices": 9136,
      "ĉĉĉĉ": 9137,
      "ande": 9138,
      "ĠIter": 9139,
      "ĠDatei": 9140,
      "Ġplaylist": 9141,
      "WITH": 9142,
      "ĠInput": 9143,
      "Ġoperators": 9144,
      "PKIHEADER": 9145,
      "Ġ*)": 9146,
      "ĠGo": 9147,
      "CTS": 9148,
      "Ġidentify": 9149,
      "Ġconvenience": 9150,
      ")[": 9151,
      "528": 9152,
      "221": 9153,
      "reporting": 9154,
      "irror": 9155,
      "Ġplaces": 9156,
      "------------": 9157,
      "ipe": 9158,
      "Ġlooks": 9159,
      "HashTable": 9160,
      "ACCURACY": 9161,
      "ention": 9162,
      "157": 9163,
      "identifier": 9164,
      "Ġbp": 9165,
      "Ġom": 9166,
      "RECIP": 9167,
      "faf": 9168,
      "ILLIC": 9169,
      "ĠWPX": 9170,
      "IGNORE": 9171,
      "YRILLIC": 9172,
      "GC": 9173,
      "Ġfmt": 9174,
      "679": 9175,
      "PBMPARAMETER": 9176,
      "Hook": 9177,
      "996": 9178,
      "pressed": 9179,
      "GIN": 9180,
      "uous": 9181,
      "ÃŁ": 9182,
      "delivery": 9183,
      "arser": 9184,
      "prep": 9185,
      "876": 9186,
      "erest": 9187,
      "seto": 9188,
      "fae": 9189,
      "UING": 9190,
      "Ġ*&#": 9191,
      "Ġexits": 9192,
      "ĠMin": 9193,
      "implement": 9194,
      "Ġgenerating": 9195,
      "068": 9196,
      "dbb": 9197,
      "FSGet": 9198,
      "Layer": 9199,
      "Ġargv": 9200,
      "pv": 9201,
      "Ġcodec": 9202,
      "LEVEL": 9203,
      "BOOL": 9204,
      "Dtls": 9205,
      "wch": 9206,
      "Ġefficient": 9207,
      "ĠGREEK": 9208,
      "274": 9209,
      "points": 9210,
      "choose": 9211,
      "ĠTypeError": 9212,
      "TABLE": 9213,
      "dce": 9214,
      "Ġcategory": 9215,
      "193": 9216,
      "055": 9217,
      "Ġintegers": 9218,
      "PROTO": 9219,
      "Ġwish": 9220,
      "Ġmig": 9221,
      "Ġaffects": 9222,
      "bac": 9223,
      "lk": 9224,
      "ĠDBI": 9225,
      "Ġunderstand": 9226,
      "caten": 9227,
      ")=": 9228,
      ":]": 9229,
      "Ġhalf": 9230,
      "Store": 9231,
      "481": 9232,
      "Ġtty": 9233,
      "Ġmill": 9234,
      "ĠCYRILLIC": 9235,
      "379": 9236,
      "Ġplain": 9237,
      "Ġcompleted": 9238,
      "generators": 9239,
      "Stop": 9240,
      "*:": 9241,
      "Print": 9242,
      "Author": 9243,
      "touch": 9244,
      "faa": 9245,
      ")]": 9246,
      "Ġnicht": 9247,
      "keywords": 9248,
      "Ġfar": 9249,
      "Ġreflect": 9250,
      "Ġnegoti": 9251,
      "unlock": 9252,
      "672": 9253,
      "Ġpassphrase": 9254,
      "RESPID": 9255,
      "secondary": 9256,
      "Ġperforms": 9257,
      "External": 9258,
      "Ġloader": 9259,
      "dcb": 9260,
      "Ġord": 9261,
      "tach": 9262,
      "265": 9263,
      "Ġinstances": 9264,
      "Review": 9265,
      "MetaData": 9266,
      "Ġoverridden": 9267,
      "Calcul": 9268,
      "Ġsa": 9269,
      "libun": 9270,
      "088": 9271,
      "EXPORT": 9272,
      "Ġdeclared": 9273,
      "Ã¨": 9274,
      "ccc": 9275,
      ".\">": 9276,
      "DV": 9277,
      "orter": 9278,
      "configuration": 9279,
      "BG": 9280,
      "fdc": 9281,
      "Ġsufficient": 9282,
      "ocal": 9283,
      "Server": 9284,
      "STYLE": 9285,
      "eef": 9286,
      "foreground": 9287,
      ";':": 9288,
      "holds": 9289,
      "AI": 9290,
      "ĠSun": 9291,
      "551": 9292,
      "Ġretrieves": 9293,
      "Status": 9294,
      "558": 9295,
      "fcd": 9296,
      "urity": 9297,
      "Lock": 9298,
      "fad": 9299,
      "Ġml": 9300,
      "erial": 9301,
      "mous": 9302,
      "POST": 9303,
      "handshake": 9304,
      "coders": 9305,
      "Ġfactor": 9306,
      "=\"}": 9307,
      "ises": 9308,
      "231": 9309,
      "components": 9310,
      "Ġva": 9311,
      "Ġsau": 9312,
      "Ġinode": 9313,
      "istream": 9314,
      "343": 9315,
      "NEL": 9316,
      "=\"{\"": 9317,
      "MT": 9318,
      "Ġinvocation": 9319,
      "cipherby": 9320,
      "partial": 9321,
      "Ġsnapshot": 9322,
      "596": 9323,
      "Safe": 9324,
      "lig": 9325,
      "Ġdrop": 9326,
      "293": 9327,
      "ĠĠĠĠĠĠĠĠĠĠĠĠĠĠĠĠĠĠĠĠĠĠĠĠ": 9328,
      "overload": 9329,
      "Ġrepeated": 9330,
      "UTCTIME": 9331,
      "vocation": 9332,
      "ridge": 9333,
      "ĠVER": 9334,
      "Ġctrl": 9335,
      "Ġancest": 9336,
      "BL": 9337,
      "DOWN": 9338,
      "Ġinform": 9339,
      "Auto": 9340,
      "254": 9341,
      "TokenData": 9342,
      "ĠmacOS": 9343,
      "Screen": 9344,
      "TROL": 9345,
      "constexpr": 9346,
      "942": 9347,
      "351": 9348,
      "00524": 9349,
      "+\\": 9350,
      "Ġrst": 9351,
      "Ġrecognized": 9352,
      "Insert": 9353,
      "Ġett": 9354,
      "PAGE": 9355,
      "ĠÃ¨": 9356,
      "Ġremoves": 9357,
      "ODE": 9358,
      "030": 9359,
      "Ġms": 9360,
      "ĠPack": 9361,
      "ract": 9362,
      "Ġpacked": 9363,
      "MAN": 9364,
      "Ġconn": 9365,
      "illa": 9366,
      "372": 9367,
      "ĠSearch": 9368,
      "PF": 9369,
      "ĠLa": 9370,
      "Fil": 9371,
      "VPN": 9372,
      "SIGNED": 9373,
      "DBusObject": 9374,
      "Ġreally": 9375,
      "ĠCor": 9376,
      "fixed": 9377,
      "middle": 9378,
      "944": 9379,
      "eval": 9380,
      "CLE": 9381,
      "want": 9382,
      "MESS": 9383,
      "dbf": 9384,
      "Ġfaster": 9385,
      "ĠWhile": 9386,
      "Service": 9387,
      "limited": 9388,
      "column": 9389,
      "navpath": 9390,
      "Ġinvoke": 9391,
      "Regex": 9392,
      "bae": 9393,
      "ccept": 9394,
      "Ġpng": 9395,
      "ĠThus": 9396,
      "Pass": 9397,
      "glo": 9398,
      "947": 9399,
      "Ġcryptographic": 9400,
      "Rep": 9401,
      "085": 9402,
      "aclassWP": 9403,
      "race": 9404,
      "073": 9405,
      "Template": 9406,
      "212": 9407,
      "aj": 9408,
      "folder": 9409,
      "sink": 9410,
      "classname": 9411,
      "541": 9412,
      "ĠLV": 9413,
      "TIMEOUT": 9414,
      "hilite": 9415,
      "dq": 9416,
      "glob": 9417,
      "PagedGenerator": 9418,
      "Ġ\"_": 9419,
      "TextRectangle": 9420,
      "1024": 9421,
      "Ġlin": 9422,
      "319": 9423,
      "orn": 9424,
      "Ġpol": 9425,
      "Ġvg": 9426,
      "CipherUpdate": 9427,
      "Ġyes": 9428,
      "dac": 9429,
      "Ġtw": 9430,
      "Ġvariants": 9431,
      "pkcs": 9432,
      "\\/": 9433,
      "Ġoctet": 9434,
      "LOCAL": 9435,
      "istring": 9436,
      "EXTENDED": 9437,
      "ited": 9438,
      "Ġben": 9439,
      "iven": 9440,
      "ĠĠĠĠĠĠĠĠĠĠĠĠĠĠĠĠĠĠĠĠ": 9441,
      "targets": 9442,
      "eof": 9443,
      "().</": 9444,
      "cop": 9445,
[...]
